{
  "version": "1.0",
  "truncation": null,
  "padding": {
    "strategy": "BatchLongest",
    "direction": "Right",
    "pad_to_multiple_of": null,
    "pad_id": 0,
    "pad_type_id": 0,
    "pad_token": "<pad>"
  },
  "added_tokens": [
    {
      "id": 0,
      "content": "<pad>",
      "single_word": false,
      "lstrip": false,
      "rstrip": false,
      "normalized": false,
      "special": true
    },
    {
      "id": 1,
      "content": "<s>",
      "single_word": false,
      "lstrip": false,
      "rstrip": false,
      "normalized": false,
      "special": true
    },
    {
      "id": 2,
      "content": "</s>",
      "single_word": false,
      "lstrip": false,
      "rstrip": false,
      "normalized": false,
      "special": true
    },
    {
      "id": 3,
      "content": "<unk>",
      "single_word": false,
      "lstrip": false,
      "rstrip": false,
      "normalized": false,
      "special": true
    },
    {
      "id": 4,
      "content": "<|system|>",
      "single_word": false,
      "lstrip": false,
      "rstrip": false,
      "normalized": false,
      "special": true
    },
    {
      "id": 5,
      "content": "<|user|>",
      "single_word": false,
      "lstrip": false,
      "rstrip": false,
      "normalized": false,
      "special": true
    },
    {
      "id": 6,
      "content": "<|assistant|>",
      "single_word": false,
      "lstrip": false,
      "rstrip": false,
      "normalized": false,
      "special": true
    },
    {
      "id": 7,
      "content": "<|end|>",
      "single_word": false,
      "lstrip": false,
      "rstrip": false,
      "normalized": false,
      "special": true
    },
    {
      "id": 8,
      "content": "<|cv_generate|>",
      "single_word": false,
      "lstrip": false,
      "rstrip": false,
      "normalized": false,
      "special": true
    }
  ],
  "normalizer": null,
  "pre_tokenizer": {
    "type": "ByteLevel",
    "add_prefix_space": false,
    "trim_offsets": true,
    "use_regex": true
  },
  "post_processor": {
    "type": "TemplateProcessing",
    "single": [
      {
        "SpecialToken": {
          "id": "<s>",
          "type_id": 0
        }
      },
      {
        "Sequence": {
          "id": "A",
          "type_id": 0
        }
      },
      {
        "SpecialToken": {
          "id": "</s>",
          "type_id": 0
        }
      }
    ],
    "pair": [
      {
        "SpecialToken": {
          "id": "<s>",
          "type_id": 0
        }
      },
      {
        "Sequence": {
          "id": "A",
          "type_id": 0
        }
      },
      {
        "SpecialToken": {
          "id": "</s>",
          "type_id": 0
        }
      },
      {
        "SpecialToken": {
          "id": "<s>",
          "type_id": 0
        }
      },
      {
        "Sequence": {
          "id": "B",
          "type_id": 0
        }
      },
      {
        "SpecialToken": {
          "id": "</s>",
          "type_id": 0
        }
      }
    ],
    "special_tokens": {
      "</s>": {
        "id": "</s>",
        "ids": [
          2
        ],
        "tokens": [
          "</s>"
        ]
      },
      "<s>": {
        "id": "<s>",
        "ids": [
          1
        ],
        "tokens": [
          "<s>"
        ]
      }
    }
  },
  "decoder": {
    "type": "ByteLevel",
    "add_prefix_space": true,
    "trim_offsets": true,
    "use_regex": true
  },
  "model": {
    "type": "BPE",
    "dropout": null,
    "unk_token": "<unk>",
    "continuing_subword_prefix": null,
    "end_of_word_suffix": null,
    "fuse_unk": false,
    "byte_fallback": false,
    "ignore_merges": false,
    "vocab": {
      "<pad>": 0,
      "<s>": 1,
      "</s>": 2,
      "<unk>": 3,
      "<|system|>": 4,
      "<|user|>": 5,
      "<|assistant|>": 6,
      "<|end|>": 7,
      "<|cv_generate|>": 8,
      "!": 9,
      "\"": 10,
      "#": 11,
      "$": 12,
      "%": 13,
      "&": 14,
      "'": 15,
      "(": 16,
      ")": 17,
      "*": 18,
      "+": 19,
      ",": 20,
      "-": 21,
      ".": 22,
      "/": 23,
      "0": 24,
      "1": 25,
      "2": 26,
      "3": 27,
      "4": 28,
      "5": 29,
      "6": 30,
      "7": 31,
      "8": 32,
      "9": 33,
      ":": 34,
      ";": 35,
      "<": 36,
      "=": 37,
      ">": 38,
      "?": 39,
      "@": 40,
      "A": 41,
      "B": 42,
      "C": 43,
      "D": 44,
      "E": 45,
      "F": 46,
      "G": 47,
      "H": 48,
      "I": 49,
      "J": 50,
      "K": 51,
      "L": 52,
      "M": 53,
      "N": 54,
      "O": 55,
      "P": 56,
      "Q": 57,
      "R": 58,
      "S": 59,
      "T": 60,
      "U": 61,
      "V": 62,
      "W": 63,
      "X": 64,
      "Y": 65,
      "Z": 66,
      "[": 67,
      "\\": 68,
      "]": 69,
      "^": 70,
      "_": 71,
      "`": 72,
      "a": 73,
      "b": 74,
      "c": 75,
      "d": 76,
      "e": 77,
      "f": 78,
      "g": 79,
      "h": 80,
      "i": 81,
      "j": 82,
      "k": 83,
      "l": 84,
      "m": 85,
      "n": 86,
      "o": 87,
      "p": 88,
      "q": 89,
      "r": 90,
      "s": 91,
      "t": 92,
      "u": 93,
      "v": 94,
      "w": 95,
      "x": 96,
      "y": 97,
      "z": 98,
      "{": 99,
      "|": 100,
      "}": 101,
      "~": 102,
      "¡": 103,
      "¢": 104,
      "£": 105,
      "¤": 106,
      "¥": 107,
      "¦": 108,
      "§": 109,
      "¨": 110,
      "©": 111,
      "ª": 112,
      "«": 113,
      "¬": 114,
      "®": 115,
      "¯": 116,
      "°": 117,
      "±": 118,
      "²": 119,
      "³": 120,
      "´": 121,
      "µ": 122,
      "¶": 123,
      "·": 124,
      "¸": 125,
      "¹": 126,
      "º": 127,
      "»": 128,
      "¼": 129,
      "½": 130,
      "¾": 131,
      "¿": 132,
      "À": 133,
      "Á": 134,
      "Â": 135,
      "Ã": 136,
      "Ä": 137,
      "Å": 138,
      "Æ": 139,
      "Ç": 140,
      "È": 141,
      "É": 142,
      "Ê": 143,
      "Ë": 144,
      "Ì": 145,
      "Í": 146,
      "Î": 147,
      "Ï": 148,
      "Ð": 149,
      "Ñ": 150,
      "Ò": 151,
      "Ó": 152,
      "Ô": 153,
      "Õ": 154,
      "Ö": 155,
      "×": 156,
      "Ø": 157,
      "Ù": 158,
      "Ú": 159,
      "Û": 160,
      "Ü": 161,
      "Ý": 162,
      "Þ": 163,
      "ß": 164,
      "à": 165,
      "á": 166,
      "â": 167,
      "ã": 168,
      "ä": 169,
      "å": 170,
      "æ": 171,
      "ç": 172,
      "è": 173,
      "é": 174,
      "ê": 175,
      "ë": 176,
      "ì": 177,
      "í": 178,
      "î": 179,
      "ï": 180,
      "ð": 181,
      "ñ": 182,
      "ò": 183,
      "ó": 184,
      "ô": 185,
      "õ": 186,
      "ö": 187,
      "÷": 188,
      "ø": 189,
      "ù": 190,
      "ú": 191,
      "û": 192,
      "ü": 193,
      "ý": 194,
      "þ": 195,
      "ÿ": 196,
      "Ā": 197,
      "ā": 198,
      "Ă": 199,
      "ă": 200,
      "Ą": 201,
      "ą": 202,
      "Ć": 203,
      "ć": 204,
      "Ĉ": 205,
      "ĉ": 206,
      "Ċ": 207,
      "ċ": 208,
      "Č": 209,
      "č": 210,
      "Ď": 211,
      "ď": 212,
      "Đ": 213,
      "đ": 214,
      "Ē": 215,
      "ē": 216,
      "Ĕ": 217,
      "ĕ": 218,
      "Ė": 219,
      "ė": 220,
      "Ę": 221,
      "ę": 222,
      "Ě": 223,
      "ě": 224,
      "Ĝ": 225,
      "ĝ": 226,
      "Ğ": 227,
      "ğ": 228,
      "Ġ": 229,
      "ġ": 230,
      "Ģ": 231,
      "ģ": 232,
      "Ĥ": 233,
      "ĥ": 234,
      "Ħ": 235,
      "ħ": 236,
      "Ĩ": 237,
      "ĩ": 238,
      "Ī": 239,
      "ī": 240,
      "Ĭ": 241,
      "ĭ": 242,
      "Į": 243,
      "į": 244,
      "İ": 245,
      "ı": 246,
      "Ĳ": 247,
      "ĳ": 248,
      "Ĵ": 249,
      "ĵ": 250,
      "Ķ": 251,
      "ķ": 252,
      "ĸ": 253,
      "Ĺ": 254,
      "ĺ": 255,
      "Ļ": 256,
      "ļ": 257,
      "Ľ": 258,
      "ľ": 259,
      "Ŀ": 260,
      "ŀ": 261,
      "Ł": 262,
      "ł": 263,
      "Ń": 264,
      "in": 265,
      "er": 266,
      "ti": 267,
      "on": 268,
      "en": 269,
      "ing": 270,
      "Ġa": 271,
      "es": 272,
      "tion": 273,
      "ed": 274,
      "ation": 275,
      "Ġ\"": 276,
      "al": 277,
      "ar": 278,
      "it": 279,
      "or": 280,
      "ro": 281,
      "ec": 282,
      "at": 283,
      "an": 284,
      "cation": 285,
      "st": 286,
      "Ġo": 287,
      "il": 288,
      "Ġan": 289,
      "el": 290,
      "ce": 291,
      "Ġs": 292,
      "ĠC": 293,
      "ĠS": 294,
      "et": 295,
      "Ġand": 296,
      "ien": 297,
      "\":": 298,
      "Ġc": 299,
      "per": 300,
      "Ġt": 301,
      "ience": 302,
      "fi": 303,
      "ra": 304,
      "\",": 305,
      "<|": 306,
      "|>": 307,
      "ex": 308,
      "ĠA": 309,
      "Ġof": 310,
      "ĠM": 311,
      "Ġin": 312,
      "ent": 313,
      "re": 314,
      "ĠP": 315,
      "Ġp": 316,
      "Ġ(": 317,
      "ess": 318,
      "ch": 319,
      "ob": 320,
      "exper": 321,
      "le": 322,
      "experience": 323,
      "us": 324,
      "ver": 325,
      "du": 326,
      "ated": 327,
      "ies": 328,
      "lo": 329,
      "ill": 330,
      "ĠD": 331,
      "ĠT": 332,
      "erti": 333,
      "ertifi": 334,
      "ĠG": 335,
      "am": 336,
      "Ġw": 337,
      "Ġm": 338,
      "Ġb": 339,
      "em": 340,
      "kill": 341,
      "ve": 342,
      "ic": 343,
      "jec": 344,
      "ear": 345,
      "as": 346,
      "kills": 347,
      "edu": 348,
      "Ġd": 349,
      "cations": 350,
      "ity": 351,
      "ĠE": 352,
      "Ġpro": 353,
      "om": 354,
      "Ġ2": 355,
      "end": 356,
      "Ġexperience": 357,
      "Ġ3": 358,
      "ĠB": 359,
      "ur": 360,
      "bies": 361,
      "obbies": 362,
      "ertifications": 363,
      "ĠR": 364,
      "tive": 365,
      "ig": 366,
      "un": 367,
      "Ġr": 368,
      "ine": 369,
      "Ġy": 370,
      "ag": 371,
      "iver": 372,
      "ion": 373,
      "ĠU": 374,
      "ĠGra": 375,
      "Ġyear": 376,
      "Ġ20": 377,
      "ment": 378,
      "Ġf": 379,
      "ul": 380,
      "Ġto": 381,
      "ist": 382,
      "gine": 383,
      "ut": 384,
      "ith": 385,
      "Ġh": 386,
      "Ġyears": 387,
      "Ġ-": 388,
      "ĠGradu": 389,
      "PA": 390,
      ".\",": 391,
      "GPA": 392,
      "jective": 393,
      "education": 394,
      "ĠGraduated": 395,
      "gineer": 396,
      "ly": 397,
      "ach": 398,
      "fess": 399,
      "ional": 400,
      "fessional": 401,
      "hn": 402,
      "yst": 403,
      "sity": 404,
      "iversity": 405,
      "nam": 406,
      "ad": 407,
      "ail": 408,
      "Ġat": 409,
      "Ġth": 410,
      "ĠN": 411,
      "rit": 412,
      "ĠEn": 413,
      "Ġv": 414,
      "is": 415,
      "Ġwith": 416,
      "Ġby": 417,
      "log": 418,
      "ĠF": 419,
      "echn": 420,
      "ĠSc": 421,
      "ĠV": 422,
      "ts": 423,
      "ĠL": 424,
      "anag": 425,
      "id": 426,
      "Ġg": 427,
      "ĠEngineer": 428,
      "ĠTechn": 429,
      "ket": 430,
      "ĠI": 431,
      "Ġon": 432,
      "niversity": 433,
      "ĠUniversity": 434,
      "vel": 435,
      "olog": 436,
      "ology": 437,
      "ass": 438,
      ".\\": 439,
      "ĠManag": 440,
      "ĠPro": 441,
      "ĠJ": 442,
      "ont": 443,
      "ystem": 444,
      "ĠScience": 445,
      "im": 446,
      "ign": 447,
      "Ġprofessional": 448,
      "elor": 449,
      "achelor": 450,
      "ol": 451,
      "get": 452,
      "ac": 453,
      "aw": 454,
      "ĠTechnology": 455,
      "oo": 456,
      "for": 457,
      "Ġ1": 458,
      "hon": 459,
      "ĠH": 460,
      "ate": 461,
      "mail": 462,
      "ting": 463,
      "Ġskills": 464,
      "Ġ201": 465,
      "riter": 466,
      "ds": 467,
      "ĠIn": 468,
      "Ġro": 469,
      "user": 470,
      "imp": 471,
      ")\",": 472,
      "ĠRet": 473,
      "pp": 474,
      "com": 475,
      "ot": 476,
      "esign": 477,
      "king": 478,
      "evel": 479,
      "Ġimp": 480,
      "ant": 481,
      "ving": 482,
      "ull": 483,
      "Ġ5": 484,
      "evelo": 485,
      "Ġprojec": 486,
      "Ġrole": 487,
      "Ġval": 488,
      "ducation": 489,
      "ci": 490,
      "form": 491,
      ".<|": 492,
      "ĠAn": 493,
      "Ġco": 494,
      "cc": 495,
      "Ġnam": 496,
      "ers": 497,
      "SO": 498,
      "por": 499,
      "Education": 500,
      "Lo": 501,
      "Email": 502,
      "\"}": 503,
      "</": 504,
      "Full": 505,
      "Raw": 506,
      "Skills": 507,
      "Tar": 508,
      "Yo": 509,
      "bjective": 510,
      "certifications": 511,
      "hobbies": 512,
      "skills": 513,
      "system": 514,
      "{\"": 515,
      "Ġfi": 516,
      "Ġeducation": 517,
      "Ġare": 518,
      "ese": 519,
      "Ġ\"-": 520,
      "Ġobjective": 521,
      "elds": 522,
      "ĠCV": 523,
      "Ġcertifications": 524,
      "objective": 525,
      "Ġwriter": 526,
      "urn": 527,
      "istant": 528,
      "Ġhobbies": 529,
      "Ġthese": 530,
      "Ġonly": 531,
      "assistant": 532,
      "ĠJSO": 533,
      "ĠReturn": 534,
      "Ġvalid": 535,
      "Ġname": 536,
      "Location": 537,
      "\"}</": 538,
      "Target": 539,
      "You": 540,
      "Ġfields": 541,
      "ĠJSON": 542,
      "Ġle": 543,
      "ab": 544,
      "ud": 545,
      "educ": 546,
      "Ġreduc": 547,
      "arket": 548,
      "ĠW": 549,
      "ect": 550,
      "tim": 551,
      "ĠAnal": 552,
      "ĠDesign": 553,
      "hi": 554,
      "iness": 555,
      "usiness": 556,
      "are": 557,
      "Phon": 558,
      "Ġ+": 559,
      "Phone": 560,
      "ĠAd": 561,
      "ee": 562,
      "ust": 563,
      "Ġre": 564,
      "ang": 565,
      "Ġprojects": 566,
      "omp": 567,
      "Hobbies": 568,
      "Certifications": 569,
      "ration": 570,
      "inan": 571,
      "ning": 572,
      "ĠEngineering": 573,
      "iet": 574,
      "ain": 575,
      "ĠManager": 576,
      "Ġn": 577,
      "Ġ8": 578,
      "tic": 579,
      "ĠViet": 580,
      "ement": 581,
      "Ġ202": 582,
      "ir": 583,
      "ure": 584,
      "ay": 585,
      "rac": 586,
      "oun": 587,
      "ines": 588,
      "ĠBusiness": 589,
      "art": 590,
      "Ġex": 591,
      "Ġen": 592,
      "reas": 593,
      "Bachelor": 594,
      "ĠBachelor": 595,
      "oc": 596,
      "ĠO": 597,
      "ast": 598,
      "Ġover": 599,
      "ĠAdm": 600,
      "of": 601,
      "inist": 602,
      "ĠAdminist": 603,
      "ational": 604,
      "up": 605,
      "Ġus": 606,
      "Ġusing": 607,
      "Ġst": 608,
      "ĠSt": 609,
      "Ġl": 610,
      "eam": 611,
      "ros": 612,
      "ĠAdministration": 613,
      "ĠVietnam": 614,
      "riting": 615,
      "aster": 616,
      "Ġ4": 617,
      "ales": 618,
      "rch": 619,
      "rchit": 620,
      "all": 621,
      "reasing": 622,
      "oft": 623,
      "ead": 624,
      "ew": 625,
      "Ġreducing": 626,
      "00": 627,
      "Ġ|": 628,
      "Ġapp": 629,
      "ri": 630,
      "Ġtim": 631,
      "ecur": 632,
      "Ġac": 633,
      "Ġfor": 634,
      "cal": 635,
      "ĠCertifi": 636,
      "ĠFinan": 637,
      "ding": 638,
      "ĠManagement": 639,
      "ph": 640,
      "ĠDevelo": 641,
      "ical": 642,
      "cial": 643,
      "ran": 644,
      "Ġimpro": 645,
      "ĠPh": 646,
      "elines": 647,
      "ru": 648,
      "Ġres": 649,
      "dated": 650,
      "Ġup": 651,
      "Ġupdated": 652,
      "%.\\": 653,
      "Ġ6": 654,
      "Ġch": 655,
      "Ġteam": 656,
      "Ġsp": 657,
      "PI": 658,
      "Ġsh": 659,
      "lement": 660,
      "Ġimplement": 661,
      "lay": 662,
      "Ġde": 663,
      "qu": 664,
      "cy": 665,
      "Ġun": 666,
      "tions": 667,
      "Ġmy": 668,
      "se": 669,
      "ware": 670,
      "ĠSoft": 671,
      "ĠSoftware": 672,
      "Ġsu": 673,
      "laying": 674,
      "ading": 675,
      "Ġdevelo": 676,
      "ĠAnaly": 677,
      "arketing": 678,
      "Ġcont": 679,
      "Ġsa": 680,
      "ĠEx": 681,
      "out": 682,
      "te": 683,
      "ub": 684,
      "ter": 685,
      "omer": 686,
      "ustomer": 687,
      "formation": 688,
      "ĠAPI": 689,
      "Ġ$": 690,
      "rchitect": 691,
      "84": 692,
      "Ġdep": 693,
      "Ġcomp": 694,
      "ct": 695,
      "fic": 696,
      "inh": 697,
      "head": 698,
      "th": 699,
      "eliver": 700,
      "Ġser": 701,
      "Ġdeliver": 702,
      "QL": 703,
      "vic": 704,
      "vices": 705,
      "lic": 706,
      "our": 707,
      "Ġlo": 708,
      "ork": 709,
      "ven": 710,
      "Ġimplemented": 711,
      "ata": 712,
      "Ġinc": 713,
      "Ġcost": 714,
      "entor": 715,
      "ĠAnalyst": 716,
      "udget": 717,
      "ĠData": 718,
      "ual": 719,
      "ile": 720,
      "ong": 721,
      "ĠSu": 722,
      "ccoun": 723,
      "iz": 724,
      "ll": 725,
      "ccess": 726,
      "rate": 727,
      "rateg": 728,
      "ĠProfessional": 729,
      "Ġnew": 730,
      "ĠDeveloper": 731,
      "gle": 732,
      "oogle": 733,
      "um": 734,
      "raph": 735,
      "pa": 736,
      "ching": 737,
      "ĠInformation": 738,
      "Ġrec": 739,
      "ip": 740,
      "Ġcompl": 741,
      "ort": 742,
      "ffic": 743,
      "able": 744,
      "Ġimproving": 745,
      "ction": 746,
      "Ġdevelop": 747,
      "av": 748,
      "Ġthat": 749,
      "ĠCont": 750,
      "ĠRes": 751,
      "oti": 752,
      "rew": 753,
      "igh": 754,
      "ative": 755,
      "Ġj": 756,
      "Ġ85": 757,
      "op": 758,
      "Ġe": 759,
      "ĠMinh": 760,
      "ĠCertified": 761,
      "Ġoper": 762,
      "eg": 763,
      "ry": 764,
      "ĠHo": 765,
      "Ġengineer": 766,
      "verag": 767,
      "Ġreading": 768,
      "ĠComp": 769,
      "ershi": 770,
      "ership": 771,
      "ating": 772,
      "to": 773,
      "ma": 774,
      "%.\",": 775,
      "Ġ45": 776,
      "ĠSp": 777,
      "Ġ15": 778,
      "Ġuniversity": 779,
      "Ġsaving": 780,
      "Ġincreasing": 781,
      "est": 782,
      "PT": 783,
      "Ġmus": 784,
      "ĠFPT": 785,
      "ility": 786,
      "ow": 787,
      "icros": 788,
      "ĠCity": 789,
      "ĠChi": 790,
      "ĠVN": 791,
      "Ġexp": 792,
      "Ġent": 793,
      "ard": 794,
      "ener": 795,
      "uter": 796,
      "ĠComputer": 797,
      "ue": 798,
      "ĠFinance": 799,
      "Ġ60": 800,
      "loud": 801,
      "ĠDesigned": 802,
      "eeking": 803,
      "ug": 804,
      "ging": 805,
      "ĠAut": 806,
      "Ġ30": 807,
      "ature": 808,
      "ĠCloud": 809,
      "earhead": 810,
      "ens": 811,
      "ĠPy": 812,
      "anc": 813,
      "unction": 814,
      "ross": 815,
      "unctional": 816,
      "Ġpip": 817,
      "ute": 818,
      "Ġpipelines": 819,
      "iting": 820,
      "Ġcam": 821,
      "paign": 822,
      "Ġcampaign": 823,
      "ous": 824,
      "olu": 825,
      "ele": 826,
      "ĠSales": 827,
      "ystems": 828,
      "izing": 829,
      "oi": 830,
      "anoi": 831,
      "Ġop": 832,
      "ĠAccoun": 833,
      "ĠMarketing": 834,
      "ĠHanoi": 835,
      "ĠGoogle": 836,
      "Ġatt": 837,
      "ient": 838,
      "Not": 839,
      "bo": 840,
      "ord": 841,
      "bers": 842,
      "ker": 843,
      "ĠQ": 844,
      "egoti": 845,
      "li": 846,
      "Ġappli": 847,
      "apor": 848,
      "ingapor": 849,
      "ĠSingapor": 850,
      "ĠSingapore": 851,
      "iv": 852,
      "Ġ25": 853,
      "ural": 854,
      "ah": 855,
      "cess": 856,
      "writing": 857,
      "Ġ12": 858,
      "ĠNegoti": 859,
      "Ġsuccess": 860,
      "ĠArchitect": 861,
      "loy": 862,
      "Ġmarket": 863,
      "ource": 864,
      "Ġeffic": 865,
      "Ġdevelopment": 866,
      "graph": 867,
      "verage": 868,
      "graphy": 869,
      "ĠNo": 870,
      "Master": 871,
      "de": 872,
      "unte": 873,
      "olunte": 874,
      "Ġlocal": 875,
      "yp": 876,
      "AT": 877,
      "ecreasing": 878,
      "Ġdecreasing": 879,
      "IT": 880,
      "ati": 881,
      "ary": 882,
      "iency": 883,
      "Ġvis": 884,
      "ĠTh": 885,
      "oto": 886,
      "Ġspe": 887,
      "Playing": 888,
      "Ġsecur": 889,
      "Ġlead": 890,
      "Ġoperational": 891,
      "CD": 892,
      "yc": 893,
      "Ġcyc": 894,
      "Ġ10": 895,
      "Ġcra": 896,
      "Ġfe": 897,
      "ĠCI": 898,
      "ĠAs": 899,
      "Ġmont": 900,
      "uni": 901,
      "Ġmonth": 902,
      "fac": 903,
      "ĠExc": 904,
      "ring": 905,
      "ĠMaster": 906,
      "duct": 907,
      "ok": 908,
      "uy": 909,
      "look": 910,
      "ĠGit": 911,
      "outlook": 912,
      "Ġgener": 913,
      "ĠContent": 914,
      "adem": 915,
      "ĠFinancial": 916,
      "ack": 917,
      "earning": 918,
      "ST": 919,
      "ĠRe": 920,
      "Ġgu": 921,
      "ability": 922,
      "CS": 923,
      "edg": 924,
      "thon": 925,
      "ook": 926,
      "ĠSQL": 927,
      "ument": 928,
      "ocument": 929,
      "ering": 930,
      "fting": 931,
      "ĠNot": 932,
      "pply": 933,
      "Ġtimes": 934,
      "Ġ9": 935,
      "ĠHR": 936,
      "ĠDesigner": 937,
      "der": 938,
      "Ġ7": 939,
      "ecut": 940,
      "Ġsales": 941,
      "ecuted": 942,
      "ront": 943,
      "ance": 944,
      "Ġtran": 945,
      "Ġtrans": 946,
      "orp": 947,
      "ĠLaw": 948,
      "yah": 949,
      "ency": 950,
      "eted": 951,
      "ĠDir": 952,
      "Ġyet": 953,
      "ected": 954,
      "Ġcompleted": 955,
      "yahoo": 956,
      "ĠDirected": 957,
      "rep": 958,
      "Ġcode": 959,
      "Ġacadem": 960,
      "Ġacademic": 961,
      "Ġbudget": 962,
      "artment": 963,
      "Ġdepartment": 964,
      "ĠAccount": 965,
      "Ġseeking": 966,
      "logging": 967,
      "Ġentry": 968,
      "ĠPython": 969,
      "ĠCon": 970,
      "ĠCustomer": 971,
      "fra": 972,
      "Ġcustomer": 973,
      "Ġab": 974,
      "gmail": 975,
      "arning": 976,
      "ult": 977,
      "Ġlearning": 978,
      "corp": 979,
      "mac": 980,
      "ventor": 981,
      "armac": 982,
      "tics": 983,
      "ventory": 984,
      "Pro": 985,
      "ĠPlaying": 986,
      "ange": 987,
      "Ġcampaigns": 988,
      "Ġapplications": 989,
      "gile": 990,
      "Ġ50": 991,
      "Ġproject": 992,
      "ervices": 993,
      "Ġscal": 994,
      "ĠTes": 995,
      "ĠSpearhead": 996,
      "icroservices": 997,
      "ĠVNU": 998,
      "ĠSpearheaded": 999,
      "ĠWriting": 1000,
      "uil": 1001,
      "orpor": 1002,
      "low": 1003,
      "Ġbuil": 1004,
      "assion": 1005,
      "timizing": 1006,
      "ĠPharmac": 1007,
      "Ġoptimizing": 1008,
      "ynam": 1009,
      "Ġdri": 1010,
      "ecurity": 1011,
      "ynamic": 1012,
      "ĠPl": 1013,
      "ĠInventory": 1014,
      "Ġattend": 1015,
      "eve": 1016,
      "ieve": 1017,
      "Ġach": 1018,
      "ĠCh": 1019,
      "rontend": 1020,
      "Ġachieve": 1021,
      "ones": 1022,
      "Ġsch": 1023,
      "inancial": 1024,
      "Ġdeploy": 1025,
      "atient": 1026,
      "MIT": 1027,
      "lis": 1028,
      "sti": 1029,
      "tute": 1030,
      "ĠRMIT": 1031,
      "ĠInsti": 1032,
      "lish": 1033,
      "ĠInstitute": 1034,
      "ĠCorpor": 1035,
      "Ġtime": 1036,
      "ĠNational": 1037,
      "ĠAss": 1038,
      "functional": 1039,
      "year": 1040,
      "ations": 1041,
      "Ġcross": 1042,
      "Ġteams": 1043,
      "sis": 1044,
      "elt": 1045,
      "aint": 1046,
      "ĠAnalysis": 1047,
      "Ġqu": 1048,
      "Ġmem": 1049,
      "Ġmembers": 1050,
      "rated": 1051,
      "Ġthe": 1052,
      "ĠWriter": 1053,
      "Ġservices": 1054,
      "EST": 1055,
      "ĠAPIs": 1056,
      "50": 1057,
      "ublic": 1058,
      "kele": 1059,
      "erkele": 1060,
      "ĠPatient": 1061,
      "ĠBerkele": 1062,
      "ĠUC": 1063,
      "ĠFor": 1064,
      "ĠBerkeley": 1065,
      "nbo": 1066,
      "arding": 1067,
      "ound": 1068,
      "nboarding": 1069,
      "etts": 1070,
      "ĠMass": 1071,
      "usetts": 1072,
      "achusetts": 1073,
      "ĠMassachusetts": 1074,
      "anfor": 1075,
      "ĠStanfor": 1076,
      "ĠStanford": 1077,
      "ĠREST": 1078,
      "Ġcosts": 1079,
      "Ġmonthly": 1080,
      "ackend": 1081,
      "obe": 1082,
      "Ġefficiency": 1083,
      "omated": 1084,
      "ĠTechnical": 1085,
      "IY": 1086,
      "ening": 1087,
      "roug": 1088,
      "Ġanim": 1089,
      "ĠDIY": 1090,
      "ĠTrac": 1091,
      "Ġgard": 1092,
      "ĠOnboarding": 1093,
      "Ġshelt": 1094,
      "olunteering": 1095,
      "Ġcrafting": 1096,
      "rough": 1097,
      "Ġanimal": 1098,
      "Ġgardening": 1099,
      "Ġshelters": 1100,
      "ball": 1101,
      "aries": 1102,
      "atching": 1103,
      "Ġspor": 1104,
      "aming": 1105,
      "Ġwatching": 1106,
      "Ġbas": 1107,
      "Ġdocument": 1108,
      "Ġgaming": 1109,
      "ketball": 1110,
      "Ġdelivery": 1111,
      "Ġsports": 1112,
      "Ġbasketball": 1113,
      "Ġdocumentaries": 1114,
      "ful": 1115,
      "ĠSE": 1116,
      "Ġ100": 1117,
      "Ġsuccessful": 1118,
      "Ġsuccessfully": 1119,
      "hanc": 1120,
      "eling": 1121,
      "ĠIll": 1122,
      "Ġenhanc": 1123,
      "Ġjuni": 1124,
      "ĠIllust": 1125,
      "Ġjunior": 1126,
      "aking": 1127,
      "ory": 1128,
      "ories": 1129,
      "Ġpublic": 1130,
      "istory": 1131,
      "Ġhistory": 1132,
      "ĠLed": 1133,
      "Ġstories": 1134,
      "Ġshort": 1135,
      "Ġspeaking": 1136,
      "eum": 1137,
      "ial": 1138,
      "ov": 1139,
      "rt": 1140,
      "Ġart": 1141,
      "ecial": 1142,
      "anual": 1143,
      "Ġpain": 1144,
      "empor": 1145,
      "ketching": 1146,
      "Ġcontempor": 1147,
      "Ġmuseum": 1148,
      "Ġvisiting": 1149,
      "Ġpainting": 1150,
      "Ġcontemporary": 1151,
      "Ġmuseums": 1152,
      "Ġuser": 1153,
      "Ġrequ": 1154,
      "hop": 1155,
      "ĠTesting": 1156,
      "igma": 1157,
      "isc": 1158,
      "ruct": 1159,
      "zed": 1160,
      "Ġfinancial": 1161,
      "Ġoverall": 1162,
      "endor": 1163,
      "Ġapply": 1164,
      "cesses": 1165,
      "iking": 1166,
      "lor": 1167,
      "atform": 1168,
      "Ġhiking": 1169,
      "ĠLearning": 1170,
      "Ġnature": 1171,
      "Ġexplor": 1172,
      "otography": 1173,
      "Ġexploring": 1174,
      ")<|": 1175,
      "llo": 1176,
      "ĠQA": 1177,
      "llocation": 1178,
      "ik": 1179,
      "ital": 1180,
      "igital": 1181,
      "ira": 1182,
      "od": 1183,
      "Ġmarketing": 1184,
      "ĠNur": 1185,
      "olutions": 1186,
      "ire": 1187,
      "Ġinfra": 1188,
      "ject": 1189,
      "ĠStrateg": 1190,
      "ĠStrategy": 1191,
      "ocker": 1192,
      "ĠAnalytics": 1193,
      "Ġengineers": 1194,
      "Ġ500": 1195,
      "Ġarchitect": 1196,
      "Ġhigh": 1197,
      "allen": 1198,
      "Ġchallen": 1199,
      "Ġsystems": 1200,
      "tot": 1201,
      "ase": 1202,
      "ĠProduct": 1203,
      "Ġunder": 1204,
      "totyp": 1205,
      "ff": 1206,
      "national": 1207,
      "uis": 1208,
      "Ġexper": 1209,
      "tise": 1210,
      "Ġcuis": 1211,
      "Ġinter": 1212,
      "Ġmanag": 1213,
      "Ġbrew": 1214,
      "Ġblogging": 1215,
      "Ġfoo": 1216,
      "ooking": 1217,
      "Ġcoff": 1218,
      "Ġengineering": 1219,
      "Ġexpertise": 1220,
      "Ġcuisines": 1221,
      "Ġinternational": 1222,
      "Ġbrewing": 1223,
      "Ġfood": 1224,
      "Ġcoffee": 1225,
      "row": 1226,
      "opy": 1227,
      "ĠDevelop": 1228,
      "ĠK": 1229,
      "perform": 1230,
      "ĠConf": 1231,
      "ling": 1232,
      "ness": 1233,
      "nov": 1234,
      "tel": 1235,
      "ining": 1236,
      "enti": 1237,
      "arat": 1238,
      "itness": 1239,
      "Ġtra": 1240,
      "Ġmarat": 1241,
      "unning": 1242,
      "Ġfitness": 1243,
      "ulting": 1244,
      "hons": 1245,
      "Ġresulting": 1246,
      "Ġcycling": 1247,
      "ĠExcel": 1248,
      "novative": 1249,
      "Ġtraining": 1250,
      "Ġmarathons": 1251,
      "ved": 1252,
      "ĠJira": 1253,
      "olving": 1254,
      "ĠAdobe": 1255,
      "Ġleadership": 1256,
      "ohn": 1257,
      "Ġtrac": 1258,
      "earch": 1259,
      "ĠProven": 1260,
      "Ġrecord": 1261,
      "ĠResearch": 1262,
      "Ġtrack": 1263,
      "inu": 1264,
      "Hub": 1265,
      "Op": 1266,
      "Sc": 1267,
      "orient": 1268,
      "ĠLead": 1269,
      "Ops": 1270,
      "oriented": 1271,
      "lect": 1272,
      "Ġgra": 1273,
      "ĠNegotiation": 1274,
      "gac": 1275,
      "Ġlegac": 1276,
      "edge": 1277,
      "Ġlegacy": 1278,
      "High": 1279,
      "js": 1280,
      "uag": 1281,
      "ite": 1282,
      "Ġsolutions": 1283,
      "Ġcult": 1284,
      "ravel": 1285,
      "change": 1286,
      "ĠDocker": 1287,
      "ĠBudget": 1288,
      "anguag": 1289,
      "Ġexchange": 1290,
      "Ġlanguag": 1291,
      "Ġcultural": 1292,
      "raveling": 1293,
      "Ġlanguages": 1294,
      "ovel": 1295,
      "edic": 1296,
      "Ġsid": 1297,
      "Ġsci": 1298,
      "Ġ2015": 1299,
      "Ġcoding": 1300,
      "Ġnovel": 1301,
      "Ġchess": 1302,
      "Ġside": 1303,
      "Ġnovels": 1304,
      "Ġk": 1305,
      "Ġtic": 1306,
      "Ġbusiness": 1307,
      "Ġdesign": 1308,
      "kets": 1309,
      "Ġtickets": 1310,
      "achine": 1311,
      "10": 1312,
      "ition": 1313,
      "lab": 1314,
      "ention": 1315,
      "ĠCol": 1316,
      "labor": 1317,
      "ĠCollabor": 1318,
      "Ġarchit": 1319,
      "ecting": 1320,
      "ĠPassion": 1321,
      "Ġleverage": 1322,
      "orks": 1323,
      "Ġabout": 1324,
      "Ġarchitecting": 1325,
      "ĠPassionate": 1326,
      "oci": 1327,
      "ĠMachine": 1328,
      "ich": 1329,
      "ĠMaint": 1330,
      "opywriting": 1331,
      "uong": 1332,
      "perations": 1333,
      "WS": 1334,
      "olid": 1335,
      "actions": 1336,
      "ĠPrep": 1337,
      "Ġscalable": 1338,
      "ĠPrepar": 1339,
      "ĠAgile": 1340,
      "ash": 1341,
      "echnical": 1342,
      "Ġbuild": 1343,
      "rip": 1344,
      "Ġdrive": 1345,
      "mul": 1346,
      "over": 1347,
      "saw": 1348,
      "sfac": 1349,
      "tisfac": 1350,
      "Ġall": 1351,
      "Ġallocation": 1352,
      "ilest": 1353,
      "versaw": 1354,
      "Ġmilest": 1355,
      "edule": 1356,
      "Ġgrew": 1357,
      "Ġreduction": 1358,
      "Ġ2021": 1359,
      "Ġexecuted": 1360,
      "ĠOversaw": 1361,
      "Ġstrateg": 1362,
      "Ġresource": 1363,
      "Ġshare": 1364,
      "Ġsatisfac": 1365,
      "Ġdelivering": 1366,
      "Ġcomplex": 1367,
      "Ġexpens": 1368,
      "Ġsecured": 1369,
      "CSAT": 1370,
      "Ġschedule": 1371,
      "ĠFormul": 1372,
      "Ġmilestones": 1373,
      "Ġstrategies": 1374,
      "Ġsatisfaction": 1375,
      "Ġexpenses": 1376,
      "ĠFormulated": 1377,
      "ive": 1378,
      "itar": 1379,
      "Ġsong": 1380,
      "Ġtechnical": 1381,
      "igs": 1382,
      "Ġgigs": 1383,
      "udent": 1384,
      "Ġlive": 1385,
      "Ġacous": 1386,
      "Ġmusic": 1387,
      "Ġguitar": 1388,
      "Ġattending": 1389,
      "Ġsongwriting": 1390,
      "Ġacoustic": 1391,
      "),": 1392,
      "ĠUI": 1393,
      "ĠOperations": 1394,
      "ML": 1395,
      "ĠCopywriting": 1396,
      "own": 1397,
      "ĠSEO": 1398,
      "edi": 1399,
      "ĠAc": 1400,
      "emon": 1401,
      "ĠProject": 1402,
      "pert": 1403,
      "ĠSecurity": 1404,
      "Ġ2014": 1405,
      "ĠGitHub": 1406,
      "AP": 1407,
      "mart": 1408,
      "anning": 1409,
      "ĠCS": 1410,
      "ĠAds": 1411,
      "ĠPlanning": 1412,
      "AB": 1413,
      "LAB": 1414,
      "ĠCiv": 1415,
      "Ġ2016": 1416,
      "tical": 1417,
      "ATLAB": 1418,
      "ĠCivil": 1419,
      "MO": 1420,
      "OMO": 1421,
      "eta": 1422,
      "ĠMOMO": 1423,
      "Ġ2013": 1424,
      "pr": 1425,
      "ĠSystems": 1426,
      "Ġ2023": 1427,
      "oundation": 1428,
      "ments": 1429,
      "irements": 1430,
      "flow": 1431,
      "gency": 1432,
      "Ġaverage": 1433,
      "Ġagency": 1434,
      "itment": 1435,
      "Ġwork": 1436,
      "Ġmanual": 1437,
      "Ġprocesses": 1438,
      "Ġhir": 1439,
      "Ġvendor": 1440,
      "Ġprofessionals": 1441,
      "Ġreductions": 1442,
      "hire": 1443,
      "racts": 1444,
      "Ġoverhead": 1445,
      "Ġtimelines": 1446,
      "ruitment": 1447,
      "Ġchain": 1448,
      "Ġsupply": 1449,
      "Ġcontracts": 1450,
      "Ġrecruitment": 1451,
      "ĠNegotiated": 1452,
      "Ġsecuring": 1453,
      "Ġfees": 1454,
      "Ġenhancing": 1455,
      "Ġworkflow": 1456,
      "Ġhired": 1457,
      "lict": 1458,
      "ĠResolu": 1459,
      "ĠResolution": 1460,
      "Ġem": 1461,
      "Ġ2025": 1462,
      "force": 1463,
      "iam": 1464,
      "Ġdu": 1465,
      "ĠMicroservices": 1466,
      "ĠMATLAB": 1467,
      "illiam": 1468,
      "Ġ2011": 1469,
      "Ġ2022": 1470,
      "illiams": 1471,
      "ber": 1472,
      "seling": 1473,
      "ĠCoun": 1474,
      "essment": 1475,
      "fact": 1476,
      "ĠAssessment": 1477,
      "ĠCounseling": 1478,
      "ifi": 1479,
      "ĠLic": 1480,
      "Ġ2024": 1481,
      "ures": 1482,
      "ĠInter": 1483,
      "ĠSupply": 1484,
      "ĠChain": 1485,
      "ĠAccountant": 1486,
      "das": 1487,
      "andas": 1488,
      "ĠMeta": 1489,
      "Ġ2012": 1490,
      "ĠNurse": 1491,
      "ĠConflict": 1492,
      "cate": 1493,
      "ser": 1494,
      "ĠCertificate": 1495,
      "avis": 1496,
      "In": 1497,
      "ming": 1498,
      "erra": 1499,
      "ĠPandas": 1500,
      "ĠLe": 1501,
      "ava": 1502,
      "erraform": 1503,
      "En": 1504,
      "Graph": 1505,
      "ev": 1506,
      "frontend": 1507,
      "grated": 1508,
      "iew": 1509,
      "part": 1510,
      "val": 1511,
      "vail": 1512,
      "view": 1513,
      "ense": 1514,
      "Ġavail": 1515,
      "roval": 1516,
      "atency": 1517,
      "eloc": 1518,
      "Ġsystem": 1519,
      "pers": 1520,
      "ĠMentor": 1521,
      "Ġinte": 1522,
      "Ġpull": 1523,
      "ĠDev": 1524,
      "Ġbackend": 1525,
      "Ġthir": 1526,
      "Ġveloc": 1527,
      "idelines": 1528,
      "Ġreview": 1529,
      "Ġlatency": 1530,
      "Ġapproval": 1531,
      "Ġactive": 1532,
      "Ġdevelopers": 1533,
      "Ġserver": 1534,
      "Ġserving": 1535,
      "ower": 1536,
      "Ġguidelines": 1537,
      "ĠCorporate": 1538,
      "Ġusers": 1539,
      "Ġrequest": 1540,
      "ĠLicense": 1541,
      "GraphQL": 1542,
      "party": 1543,
      "Ġavailability": 1544,
      "ĠMentored": 1545,
      "Ġintegrated": 1546,
      "ĠDevOps": 1547,
      "Ġthird": 1548,
      "Ġvelocity": 1549,
      "pport": 1550,
      "ĠIllustration": 1551,
      "Certifi": 1552,
      "ui": 1553,
      "ĠDa": 1554,
      "ĠDigital": 1555,
      "ĠUser": 1556,
      "ĠNang": 1557,
      "rum": 1558,
      "ĠSpecial": 1559,
      "Certified": 1560,
      "Book": 1561,
      "roup": 1562,
      "ĠTerraform": 1563,
      "ĠGroup": 1564,
      "ĠViettel": 1565,
      "ĠTracking": 1566,
      "rat": 1567,
      "son": 1568,
      "iller": 1569,
      "ohnson": 1570,
      "rator": 1571,
      "CA": 1572,
      "ĠAWS": 1573,
      "ĠPower": 1574,
      "ĠTik": 1575,
      "ĠTher": 1576,
      "ĠTiki": 1577,
      "Ph": 1578,
      "han": 1579,
      "ark": 1580,
      "echan": 1581,
      "ĠMechan": 1582,
      "Ġ2020": 1583,
      "ĠMechanical": 1584,
      "Volunteering": 1585,
      "ĠFrontend": 1586,
      "ĠFigma": 1587,
      "ĠJava": 1588,
      "ĠShop": 1589,
      "ĠMob": 1590,
      "ision": 1591,
      "ĠSuccess": 1592,
      "ĠShopee": 1593,
      "ĠMobile": 1594,
      "Sketching": 1595,
      "Writing": 1596,
      "ĠCertification": 1597,
      "icrosoft": 1598,
      "totyping": 1599,
      "each": 1600,
      "ĠTeach": 1601,
      "ĠBran": 1602,
      "rical": 1603,
      "ĠCl": 1604,
      "ĠElect": 1605,
      "ĠVNG": 1606,
      "ĠCorporation": 1607,
      "ĠLeadership": 1608,
      "ĠElectrical": 1609,
      "RP": 1610,
      "ĠAust": 1611,
      "illing": 1612,
      "ĠTX": 1613,
      "Ġma": 1614,
      "ĠBilling": 1615,
      "ĠEngine": 1616,
      "ĠStruct": 1617,
      "ĠAutomated": 1618,
      "rown": 1619,
      "Photography": 1620,
      "ĠAustin": 1621,
      "St": 1622,
      "alifi": 1623,
      "ates": 1624,
      "Ġclic": 1625,
      "Ġrates": 1626,
      "Ġimproved": 1627,
      "ĠExecuted": 1628,
      "through": 1629,
      "ization": 1630,
      "Ġleads": 1631,
      "Ġgenerated": 1632,
      "Ġqualifi": 1633,
      "Ġemail": 1634,
      "ĠSpecialist": 1635,
      "Ġclick": 1636,
      "Ġqualified": 1637,
      "500": 1638,
      "uan": 1639,
      "yer": 1640,
      "ĠLawyer": 1641,
      "ĠPharmacist": 1642,
      "ĠBudgeting": 1643,
      "ĠCan": 1644,
      "ĠPrototyping": 1645,
      "ĠTho": 1646,
      "AR": 1647,
      "ks": 1648,
      "latform": 1649,
      "nual": 1650,
      "put": 1651,
      "tra": 1652,
      "onol": 1653,
      "Ġaut": 1654,
      "rom": 1655,
      "sting": 1656,
      "Ġannual": 1657,
      "Ġplatform": 1658,
      "Ġwee": 1659,
      "Ġmig": 1660,
      "Ġmicroservices": 1661,
      "Ġmonol": 1662,
      "Ġboo": 1663,
      "Ġrecur": 1664,
      "Ġrele": 1665,
      "Ġfrom": 1666,
      "Ġhour": 1667,
      "Ġthrough": 1668,
      "Ġ2010": 1669,
      "Ġreven": 1670,
      "Ġspend": 1671,
      "Ġimplementation": 1672,
      "ĠArchitected": 1673,
      "Ġcycle": 1674,
      "Ġgenerating": 1675,
      "Ġarchitecture": 1676,
      "ARR": 1677,
      "traffic": 1678,
      "Ġautomated": 1679,
      "Ġweeks": 1680,
      "Ġmigrated": 1681,
      "Ġmonolith": 1682,
      "Ġboosting": 1683,
      "Ġrecurring": 1684,
      "Ġrelease": 1685,
      "Ġhours": 1686,
      "Ġthroughput": 1687,
      "Ġrevenue": 1688,
      "CP": 1689,
      "cisc": 1690,
      "ĠCA": 1691,
      "ĠSan": 1692,
      "ĠFran": 1693,
      "ĠCSS": 1694,
      "cisco": 1695,
      "ĠFrancisco": 1696,
      "Flow": 1697,
      "rig": 1698,
      "orFlow": 1699,
      "etw": 1700,
      "ĠTeam": 1701,
      "ĠProcess": 1702,
      "Ġ2017": 1703,
      "uez": 1704,
      "ensorFlow": 1705,
      "riguez": 1706,
      "As": 1707,
      "York": 1708,
      "fy": 1709,
      "ges": 1710,
      "ious": 1711,
      "oCA": 1712,
      "yzed": 1713,
      "Ġid": 1714,
      "ĠYork": 1715,
      "alyzed": 1716,
      "arious": 1717,
      "ited": 1718,
      "atement": 1719,
      "Ġanalyzed": 1720,
      "ĠAcc": 1721,
      "enture": 1722,
      "ĠTyp": 1723,
      "ĠGo": 1724,
      "Ġproven": 1725,
      "ĠGrab": 1726,
      "Ġfunctional": 1727,
      "ĠNY": 1728,
      "ĠNew": 1729,
      "Ġvarious": 1730,
      "active": 1731,
      "Ġstatement": 1732,
      "Ġacross": 1733,
      "Ġdeveloping": 1734,
      "Ġsavings": 1735,
      "ĠExcited": 1736,
      "Ġbudgets": 1737,
      "Ġdepartments": 1738,
      "Proactive": 1739,
      "Ġchallenges": 1740,
      "entify": 1741,
      "inux": 1742,
      "ĠPrepared": 1743,
      "Ġduring": 1744,
      "oCAD": 1745,
      "Ġidentify": 1746,
      "ĠAccenture": 1747,
      "Ġstatements": 1748,
      "Ġidentifying": 1749,
      "Cooking": 1750,
      "eat": 1751,
      "nh": 1752,
      "tle": 1753,
      "onc": 1754,
      "ĠSeat": 1755,
      "ĠAl": 1756,
      "ĠApp": 1757,
      "Ġ2019": 1758,
      "ĠWA": 1759,
      "uynh": 1760,
      "ĠSeattle": 1761,
      "Google": 1762,
      "au": 1763,
      "ccounts": 1764,
      "ableau": 1765,
      "ĠAssoci": 1766,
      "care": 1767,
      "eal": 1768,
      "iation": 1769,
      "ries": 1770,
      "iliation": 1771,
      "ĠMicrosoft": 1772,
      "ĠDash": 1773,
      "Ġdail": 1774,
      "Ġdisc": 1775,
      "ĠEnter": 1776,
      "ise": 1777,
      "ĠVolunteering": 1778,
      "ĠHeal": 1779,
      "eep": 1780,
      "Ġledg": 1781,
      "ĠAnalyzed": 1782,
      "thcare": 1783,
      "ĠSuite": 1784,
      "Ġreconc": 1785,
      "Ġentries": 1786,
      "ancies": 1787,
      "board": 1788,
      "Ġtransactions": 1789,
      "repancies": 1790,
      "Ġmanaged": 1791,
      "ĠDevelopment": 1792,
      "prise": 1793,
      "ĠDashboard": 1794,
      "Ġdaily": 1795,
      "Ġdiscrepancies": 1796,
      "ĠEnterprise": 1797,
      "ĠHealthcare": 1798,
      "Ġledger": 1799,
      "Ġreconciliation": 1800,
      "Running": 1801,
      "bute": 1802,
      "ias": 1803,
      "os": 1804,
      "etail": 1805,
      "Ġinnovative": 1806,
      "Ġpos": 1807,
      "level": 1808,
      "usias": 1809,
      "duate": 1810,
      "Ġdetail": 1811,
      "Ġfoundation": 1812,
      "ribute": 1813,
      "Ġcontribute": 1814,
      "thusias": 1815,
      "Ġgraduate": 1816,
      "Enthusias": 1817,
      "Ġposition": 1818,
      "Enthusiastic": 1819,
      "div": 1820,
      "idu": 1821,
      "inez": 1822,
      "Ġ2018": 1823,
      "Scrip": 1824,
      "dividu": 1825,
      "Script": 1826,
      "dividual": 1827,
      "250": 1828,
      "market": 1829,
      "erating": 1830,
      "Ġacc": 1831,
      "Ġaccounts": 1832,
      "elerating": 1833,
      "etention": 1834,
      "ĠBackend": 1835,
      "Ġrate": 1836,
      "Ġretention": 1837,
      "ĠNetw": 1838,
      "ĠLinux": 1839,
      "ĠManaged": 1840,
      "rease": 1841,
      "Ġresolving": 1842,
      "Ġspearhead": 1843,
      "Ġsupport": 1844,
      "Ġincrease": 1845,
      "Ġoperating": 1846,
      "ĠAutoCAD": 1847,
      "performing": 1848,
      "Ġaccelerating": 1849,
      "Ġspearheading": 1850,
      "Traveling": 1851,
      "UX": 1852,
      "mith": 1853,
      "zon": 1854,
      "ĠSmart": 1855,
      "ĠAma": 1856,
      "ĠGraph": 1857,
      "ĠTracker": 1858,
      "ĠAmazon": 1859,
      "ĠGraphic": 1860,
      "mn": 1861,
      "nel": 1862,
      "ost": 1863,
      "annel": 1864,
      "ĠSketching": 1865,
      "ĠEm": 1866,
      "act": 1867,
      "ĠRetail": 1868,
      "ĠOmn": 1869,
      "ĠPlatform": 1870,
      "ichannel": 1871,
      "ĠOmnichannel": 1872,
      "if": 1873,
      "ĠTableau": 1874,
      "TML": 1875,
      "don": 1876,
      "oit": 1877,
      "ybers": 1878,
      "tist": 1879,
      "ondon": 1880,
      "eloit": 1881,
      "ĠCybers": 1882,
      "ientist": 1883,
      "ĠDeloit": 1884,
      "ĠUK": 1885,
      "ĠScientist": 1886,
      "ĠLondon": 1887,
      "ĠCybersecurity": 1888,
      "ĠDeloitte": 1889,
      "shop": 1890,
      "way": 1891,
      "ĠGate": 1892,
      "ĠWorks": 1893,
      "ĠPhoto": 1894,
      "pace": 1895,
      "ĠAuth": 1896,
      "ĠCollaborative": 1897,
      "ĠGateway": 1898,
      "ĠWorkspace": 1899,
      "ĠPhotoshop": 1900,
      "redic": 1901,
      "enance": 1902,
      "ĠPredic": 1903,
      "ĠPhotography": 1904,
      "ĠMaintenance": 1905,
      "ĠTeacher": 1906,
      "ĠPredictive": 1907,
      "100": 1908,
      "iel": 1909,
      "arci": 1910,
      "aniel": 1911,
      "arcia": 1912,
      "Dynamic": 1913,
      "ace": 1914,
      "book": 1915,
      "struct": 1916,
      "ĠSeeking": 1917,
      "Ġcut": 1918,
      "ĠMa": 1919,
      "ĠTensorFlow": 1920,
      "ĠHTML": 1921,
      "ĠReact": 1922,
      "ĠIllustrator": 1923,
      "Ġinfrastruct": 1924,
      "Ġchallenging": 1925,
      "Ġmanaging": 1926,
      "acebook": 1927,
      "Ġcutting": 1928,
      "Ġinfrastructure": 1929,
      "Ac": 1930,
      "Tor": 1931,
      "plish": 1932,
      "Ġperform": 1933,
      "Ġmentor": 1934,
      "complish": 1935,
      "Ġspecial": 1936,
      "Ġefficient": 1937,
      "Accomplish": 1938,
      "Torch": 1939,
      "Ġperformance": 1940,
      "Ġmentoring": 1941,
      "Ġspecializing": 1942,
      "Accomplished": 1943,
      "Lear": 1944,
      "ees": 1945,
      "gag": 1946,
      "net": 1947,
      "ocial": 1948,
      "pon": 1949,
      "run": 1950,
      "source": 1951,
      "ernet": 1952,
      "Ġsocial": 1953,
      "ĠCooking": 1954,
      "load": 1955,
      "Ġmedi": 1956,
      "Ġdown": 1957,
      "Ġfaster": 1958,
      "racting": 1959,
      "Ġengag": 1960,
      "Ġstudent": 1961,
      "Ġrespon": 1962,
      "ubernet": 1963,
      "Ġopen": 1964,
      "Ġattracting": 1965,
      "Ġattendees": 1966,
      "ĠDeveloped": 1967,
      "Learn": 1968,
      "loads": 1969,
      "Ġmedia": 1970,
      "Ġdownloads": 1971,
      "Ġengagement": 1972,
      "Ġresponse": 1973,
      "ubernetes": 1974,
      "dd": 1975,
      "ge": 1976,
      "hile": 1977,
      "iability": 1978,
      "ledge": 1979,
      "nership": 1980,
      "now": 1981,
      "oking": 1982,
      "oord": 1983,
      "pir": 1984,
      "scal": 1985,
      "vent": 1986,
      "vir": 1987,
      "volving": 1988,
      "Ġra": 1989,
      "Ġest": 1990,
      "inated": 1991,
      "onment": 1992,
      "Ġadd": 1993,
      "arity": 1994,
      "arge": 1995,
      "eliability": 1996,
      "Ġsolid": 1997,
      "ĠCoord": 1998,
      "Ġinvolving": 1999,
      "Ġprac": 2000,
      "Ġpart": 2001,
      "Ġwhile": 2002,
      "Ġdynamic": 2003,
      "unding": 2004,
      "Ġreliability": 2005,
      "ionary": 2006,
      "Ġfoc": 2007,
      "Ġfunding": 2008,
      "Ġvolunte": 2009,
      "ising": 2010,
      "Ġvalue": 2011,
      "ablish": 2012,
      "Ġenvir": 2013,
      "Ġlarge": 2014,
      "Ġcharity": 2015,
      "ĠExpert": 2016,
      "Ġlooking": 2017,
      "rategic": 2018,
      "Ġevent": 2019,
      "ĠPyTorch": 2020,
      "Ġvisionary": 2021,
      "Ġscaling": 2022,
      "Ġbuilding": 2023,
      "Ġdriving": 2024,
      "Ġarchitectural": 2025,
      "Ġknow": 2026,
      "Ġbusinesses": 2027,
      "Ġdesigns": 2028,
      "Strategic": 2029,
      "Aspir": 2030,
      "nerships": 2031,
      "scale": 2032,
      "Ġraising": 2033,
      "Ġestablish": 2034,
      "ĠCoordinated": 2035,
      "Ġpractical": 2036,
      "Ġpartnerships": 2037,
      "Ġfocus": 2038,
      "Ġvolunteers": 2039,
      "Ġenvironment": 2040,
      "Ġknowledge": 2041,
      "Aspiring": 2042,
      "Ġestablishing": 2043,
      "bust": 2044,
      "ey": 2045,
      "late": 2046,
      "oal": 2047,
      "Ġinto": 2048,
      "ĠPost": 2049,
      "ĠRunning": 2050,
      "Ġgoal": 2051,
      "Ġrobust": 2052,
      "Ġtranslate": 2053,
      "Ġability": 2054,
      "Ġrequirements": 2055,
      "Ġkey": 2056,
      "Innovative": 2057,
      "Ġgoals": 2058,
      "eav": 2059,
      "guy": 2060,
      "ution": 2061,
      "ery": 2062,
      "eds": 2063,
      "ecution": 2064,
      "atab": 2065,
      "Ġsim": 2066,
      "emas": 2067,
      "Ġdatab": 2068,
      "ulation": 2069,
      "Ġheav": 2070,
      "Ġexecution": 2071,
      "Ġload": 2072,
      "Ġspeeds": 2073,
      "Ġschemas": 2074,
      "Ġquery": 2075,
      "guyen": 2076,
      "Ġsimulation": 2077,
      "Ġdatabase": 2078,
      "Ġheavy": 2079,
      "RM": 2080,
      "ix": 2081,
      "ĠSigma": 2082,
      "ĠSix": 2083,
      "60": 2084,
      "ĠPort": 2085,
      "ĠScik": 2086,
      "ĠKubernetes": 2087,
      "ĠPortal": 2088,
      "ĠScikit": 2089,
      "BA": 2090,
      "Dedic": 2091,
      "stry": 2092,
      "eline": 2093,
      "Ġskill": 2094,
      "ĠSenti": 2095,
      "Ġindu": 2096,
      "ĠPip": 2097,
      "Ġproduct": 2098,
      "Ġimprove": 2099,
      "Dedicated": 2100,
      "Ġskilled": 2101,
      "ĠSentiment": 2102,
      "Ġindustry": 2103,
      "ĠPipeline": 2104,
      "LS": 2105,
      "Res": 2106,
      "SQL": 2107,
      "uation": 2108,
      "aluation": 2109,
      "ĠAssociate": 2110,
      ").\\": 2111,
      "Se": 2112,
      "oned": 2113,
      "ĠMod": 2114,
      "asoned": 2115,
      "Ġdigital": 2116,
      "Ġleading": 2117,
      "Ġleverag": 2118,
      "Ġtransformation": 2119,
      "Scrum": 2120,
      "Seasoned": 2121,
      "ĠModeling": 2122,
      "Ġleveraging": 2123,
      "dri": 2124,
      "fine": 2125,
      "muni": 2126,
      "oin": 2127,
      "any": 2128,
      "ands": 2129,
      "ĠCom": 2130,
      "essic": 2131,
      "ĠTraveling": 2132,
      "ames": 2133,
      "ĠEag": 2134,
      "urth": 2135,
      "Ġfurth": 2136,
      "ults": 2137,
      "Ġhands": 2138,
      "ĠValuation": 2139,
      "Ġgrow": 2140,
      "Ġrefine": 2141,
      "Ġcompany": 2142,
      "Ġjoin": 2143,
      "Ġfeature": 2144,
      "Results": 2145,
      "driven": 2146,
      "munication": 2147,
      "ĠCommunication": 2148,
      "essica": 2149,
      "ĠEager": 2150,
      "Ġfurther": 2151,
      "Ġgrowth": 2152,
      "Rec": 2153,
      "des": 2154,
      "eiv": 2155,
      "rong": 2156,
      "rating": 2157,
      "vated": 2158,
      "Ġit": 2159,
      "Ġearning": 2160,
      "Ġas": 2161,
      "strating": 2162,
      "Ġcare": 2163,
      "Ġindividual": 2164,
      "ĠPay": 2165,
      "Ġpassion": 2166,
      "Ġmoti": 2167,
      "Ġbring": 2168,
      "Ġdemon": 2169,
      "Ġprofic": 2170,
      "Ġprototyp": 2171,
      "Ġfac": 2172,
      "Ġtop": 2173,
      "Ġstart": 2174,
      "Ġstrong": 2175,
      "Ġcontinu": 2176,
      "ulty": 2177,
      "Ġgrades": 2178,
      "Highly": 2179,
      "ĠCollaborated": 2180,
      "Receiv": 2181,
      "Ġcareer": 2182,
      "ĠPayable": 2183,
      "Ġmotivated": 2184,
      "Ġbringing": 2185,
      "Ġdemonstrating": 2186,
      "Ġproficiency": 2187,
      "Ġprototype": 2188,
      "Ġfaculty": 2189,
      "Ġcontinuous": 2190,
      "Receivable": 2191,
      "IS": 2192,
      "PM": 2193,
      "SP": 2194,
      "reading": 2195,
      "ofreading": 2196,
      "Works": 2197,
      "hol": 2198,
      "jor": 2199,
      "pated": 2200,
      "ric": 2201,
      "inor": 2202,
      "eremon": 2203,
      "tici": 2204,
      "Ġagile": 2205,
      "artici": 2206,
      "atures": 2207,
      "Ġceremon": 2208,
      "ĠMarket": 2209,
      "ĠPartici": 2210,
      "Ġph": 2211,
      "Ġminor": 2212,
      "Ġfeatures": 2213,
      "Ġdeployed": 2214,
      "Ġdeployment": 2215,
      "olidWorks": 2216,
      "Ġmajor": 2217,
      "holder": 2218,
      "Ġceremonies": 2219,
      "ĠParticipated": 2220,
      "Sales": 2221,
      "goc": 2222,
      "hes": 2223,
      "iang": 2224,
      "les": 2225,
      "odu": 2226,
      "shes": 2227,
      "vision": 2228,
      "tium": 2229,
      "pervision": 2230,
      "Ġwhi": 2231,
      "Ġmodu": 2232,
      "Ġbug": 2233,
      "olved": 2234,
      "Ġreduced": 2235,
      "ained": 2236,
      "Ġresolved": 2237,
      "ĠSupervision": 2238,
      "avid": 2239,
      "Ġapplication": 2240,
      "Ġcrashes": 2241,
      "Ġenhanced": 2242,
      "ĠMaintained": 2243,
      "Ġwhich": 2244,
      "Ġmodules": 2245,
      "82": 2246,
      "SL": 2247,
      "cure": 2248,
      "ploy": 2249,
      "erform": 2250,
      "stru": 2251,
      "elations": 2252,
      "ĠPol": 2253,
      "icies": 2254,
      "ĠRelations": 2255,
      "ĠInstru": 2256,
      "ĠAccounts": 2257,
      "ĠLaws": 2258,
      "curement": 2259,
      "ployee": 2260,
      "erformance": 2261,
      "ĠPolicies": 2262,
      "ĠInstruction": 2263,
      "OS": 2264,
      "iOS": 2265,
      "ecast": 2266,
      "ĠEducation": 2267,
      "ĠFacebook": 2268,
      "ĠRetention": 2269,
      "ĠChange": 2270,
      "ĠForecast": 2271,
      "ĠEducational": 2272,
      "ĠForecasting": 2273,
      "ret": 2274,
      "ĠAud": 2275,
      "rete": 2276,
      "ĠAuditing": 2277,
      "64": 2278,
      "ael": 2279,
      "gation": 2280,
      "iti": 2281,
      "oT": 2282,
      "rang": 2283,
      "sing": 2284,
      "wif": 2285,
      "alent": 2286,
      "ĠSite": 2287,
      "ĠGener": 2288,
      "omas": 2289,
      "age": 2290,
      "isition": 2291,
      "ĠProcurement": 2292,
      "porting": 2293,
      "riage": 2294,
      "quisition": 2295,
      "ĠReporting": 2296,
      "ĠNursing": 2297,
      "ichael": 2298,
      "ĠAcquisition": 2299,
      "ĠLean": 2300,
      "ĠEmployee": 2301,
      "itigation": 2302,
      "wift": 2303,
      "ĠGeneration": 2304,
      "LC": 2305,
      "PE": 2306,
      "bt": 2307,
      "crete": 2308,
      "gra": 2309,
      "kBook": 2310,
      "keep": 2311,
      "mming": 2312,
      "uic": 2313,
      "ored": 2314,
      "ĠSolidWorks": 2315,
      "ĠManual": 2316,
      "Ġmaint": 2317,
      "ĠProofreading": 2318,
      "ĠProgra": 2319,
      "ainability": 2320,
      "Ġdebt": 2321,
      "ĠSalesforce": 2322,
      "Ġmonths": 2323,
      "Ġgeneral": 2324,
      "ĠRefact": 2325,
      "ĠConcrete": 2326,
      "kBooks": 2327,
      "keeping": 2328,
      "uickBooks": 2329,
      "Ġmaintainability": 2330,
      "ĠProgramming": 2331,
      "ĠRefactored": 2332,
      "ao": 2333,
      "mod": 2334,
      "williams": 2335,
      "ĠiOS": 2336,
      "ĠSwift": 2337,
      "ĠWilliams": 2338,
      "ayout": 2339,
      "ynamics": 2340,
      "ĠAltium": 2341,
      "Salesforce": 2342,
      "modynamics": 2343,
      "87": 2344,
      "Jen": 2345,
      "dro": 2346,
      "kin": 2347,
      "rol": 2348,
      "ĠControl": 2349,
      "ĠResource": 2350,
      "ĠThermodynamics": 2351,
      "Jenkin": 2352,
      "droid": 2353,
      "Jenkins": 2354,
      "89": 2355,
      "LL": 2356,
      "LP": 2357,
      "MR": 2358,
      "SAP": 2359,
      "ap": 2360,
      "cu": 2361,
      "down": 2362,
      "uc": 2363,
      "ufact": 2364,
      "anufact": 2365,
      "ĠPLC": 2366,
      "ĠTriage": 2367,
      "ĠESL": 2368,
      "ĠBook": 2369,
      "uring": 2370,
      "ĠProcesses": 2371,
      "ircu": 2372,
      "ĠPharmacology": 2373,
      "arkdown": 2374,
      "apy": 2375,
      "anufacturing": 2376,
      "ĠBookkeeping": 2377,
      "ircuit": 2378,
      "Design": 2379,
      "reative": 2380,
      "ĠPerformance": 2381,
      "ĠEMR": 2382,
      "ĠLitigation": 2383,
      "ĠLayout": 2384,
      "ĠPropert": 2385,
      "tellect": 2386,
      "edication": 2387,
      "ĠProperty": 2388,
      "tellectual": 2389,
      "13": 2390,
      "davis": 2391,
      "glish": 2392,
      "lu": 2393,
      "ptim": 2394,
      "rts": 2395,
      "erature": 2396,
      "ence": 2397,
      "iterature": 2398,
      "ĠArts": 2399,
      "ĠDavis": 2400,
      "ĠTalent": 2401,
      "ĠEnglish": 2402,
      "ĠLiterature": 2403,
      "ĠOptim": 2404,
      "ĠStudent": 2405,
      "ĠKPI": 2406,
      "luence": 2407,
      "ĠOptimization": 2408,
      "24": 2409,
      "ASP": 2410,
      "WASP": 2411,
      "pens": 2412,
      "ĠBI": 2413,
      "urric": 2414,
      "ulum": 2415,
      "ispens": 2416,
      "ĠVBA": 2417,
      "ĠIoT": 2418,
      "ĠAndroid": 2419,
      "ector": 2420,
      "ĠQuickBooks": 2421,
      "urriculum": 2422,
      "ispensing": 2423,
      "29": 2424,
      "PR": 2425,
      "bui": 2426,
      "eus": 2427,
      "eScript": 2428,
      "heus": 2429,
      "met": 2430,
      "ĠCare": 2431,
      "ĠCreative": 2432,
      "ĠManufacturing": 2433,
      "ĠBui": 2434,
      "ĠNLP": 2435,
      "ĠVendor": 2436,
      "ĠIntercom": 2437,
      "metheus": 2438,
      "78": 2439,
      "IE": 2440,
      "cont": 2441,
      "johnson": 2442,
      "miller": 2443,
      "enet": 2444,
      "room": 2445,
      "roll": 2446,
      "rocont": 2447,
      "ĠCircuit": 2448,
      "ĠMiller": 2449,
      "chimp": 2450,
      "ĠGIS": 2451,
      "icrocont": 2452,
      "ĠERP": 2453,
      "ĠBlogging": 2454,
      "ailchimp": 2455,
      "assroom": 2456,
      "ĠJohnson": 2457,
      "ĠInDesign": 2458,
      "rug": 2459,
      "ITA": 2460,
      "ĠActions": 2461,
      "ĠInteractions": 2462,
      "enetration": 2463,
      "rollers": 2464,
      "icrocontrollers": 2465,
      "16": 2466,
      "20": 2467,
      "AAP": 2468,
      "Sp": 2469,
      "bp": 2470,
      "ebp": 2471,
      "stical": 2472,
      "ĠCurriculum": 2473,
      "ĠMicrocontrollers": 2474,
      "ĠVector": 2475,
      "ĠIntellectual": 2476,
      "ĠOWASP": 2477,
      "atistical": 2478,
      "ĠConfluence": 2479,
      "ĠNetwork": 2480,
      "Spot": 2481,
      "ebpack": 2482,
      "Pr": 2483,
      "ana": 2484,
      "ĠMarkdown": 2485,
      "ĠMailchimp": 2486,
      "esson": 2487,
      "ĠDITA": 2488,
      "ĠNative": 2489,
      "isk": 2490,
      "ĠScrip": 2491,
      "ĠStatistical": 2492,
      "ordPr": 2493,
      "ĠBrand": 2494,
      "ĠClient": 2495,
      "ĠTypeScript": 2496,
      "ĠScripting": 2497,
      "ordPress": 2498,
      ".)": 2499,
      "tran": 2500,
      "arah": 2501,
      "ĠMedication": 2502,
      "loom": 2503,
      "ĠDocument": 2504,
      "ĠTran": 2505,
      "ĠRisk": 2506,
      "ketch": 2507,
      "ĠWound": 2508,
      "framing": 2509,
      "ĠPharmacy": 2510,
      "ireframing": 2511,
      "berg": 2512,
      "ĠStructures": 2513,
      "loomberg": 2514,
      "ĠDocumentation": 2515,
      "MM": 2516,
      "ax": 2517,
      "brown": 2518,
      "diting": 2519,
      "ĠPenetration": 2520,
      "ĠDispensing": 2521,
      "ĠBrown": 2522,
      "ĠPrometheus": 2523,
      "ĠWebpack": 2524,
      "ĠPreparation": 2525,
      "ĠBranding": 2526,
      "26": 2527,
      "BLS": 2528,
      "DA": 2529,
      "EA": 2530,
      "UDA": 2531,
      "gis": 2532,
      "hering": 2533,
      "iology": 2534,
      "irew": 2535,
      "oad": 2536,
      "athering": 2537,
      "ĠDrug": 2538,
      "ĠGathering": 2539,
      "edux": 2540,
      "ĠBiology": 2541,
      "ĠRoad": 2542,
      "ĠLesson": 2543,
      "alls": 2544,
      "quirements": 2545,
      "egal": 2546,
      "map": 2547,
      "ĠAsana": 2548,
      "ĠClassroom": 2549,
      "ĠStructural": 2550,
      "gistics": 2551,
      "irewalls": 2552,
      "ĠRoadmap": 2553,
      "30": 2554,
      "35": 2555,
      "ĠCRM": 2556,
      "ĠSketch": 2557,
      "rafting": 2558,
      "ĠDrafting": 2559,
      "ĠTax": 2560,
      "ĠGAAP": 2561,
      "ĠBloomberg": 2562,
      "ĠLegal": 2563,
      "ĠWordPress": 2564,
      "ract": 2565,
      "17": 2566,
      "DB": 2567,
      "dang": 2568,
      "driguez": 2569,
      "hark": 2570,
      "oDB": 2571,
      "pto": 2572,
      "stim": 2573,
      "eshark": 2574,
      "rodriguez": 2575,
      "ily": 2576,
      "ĠDang": 2577,
      "ĠEstim": 2578,
      "ĠBash": 2579,
      "ĠRod": 2580,
      "ĠRedux": 2581,
      "ĠUML": 2582,
      "ĠFirewalls": 2583,
      "pping": 2584,
      "ĠWireframing": 2585,
      "ireshark": 2586,
      "ongoDB": 2587,
      "rypto": 2588,
      "ĠTherapy": 2589,
      "ĠMapping": 2590,
      "IEM": 2591,
      "ĠEstimation": 2592,
      "ĠRodriguez": 2593,
      "ryptography": 2594,
      "43": 2595,
      "76": 2596,
      "huynh": 2597,
      "jang": 2598,
      "ĠHuynh": 2599,
      "ĠRequirements": 2600,
      "Professional": 2601,
      "jango": 2602,
      "86": 2603,
      "ak": 2604,
      "eholder": 2605,
      "ography": 2606,
      "ĠCPR": 2607,
      "ĠSMM": 2608,
      "ĠDjango": 2609,
      "ĠEditing": 2610,
      "ĠBug": 2611,
      "ĠFEA": 2612,
      "ĠWireshark": 2613,
      "phan": 2614,
      "ĠPhan": 2615,
      "ĠContract": 2616,
      "akeholder": 2617,
      "85": 2618,
      "Ad": 2619,
      "LOps": 2620,
      "gre": 2621,
      "ogistics": 2622,
      "win": 2623,
      "zure": 2624,
      "ĠCUDA": 2625,
      "ĠSystem": 2626,
      "ety": 2627,
      "ĠMart": 2628,
      "ĠMLOps": 2629,
      "ĠGCP": 2630,
      "ailwin": 2631,
      "ĠLogistics": 2632,
      "pham": 2633,
      "ĠPham": 2634,
      "ociety": 2635,
      "martinez": 2636,
      "greSQL": 2637,
      "ĠMartinez": 2638,
      "ailwind": 2639,
      "21": 2640,
      "45": 2641,
      "46": 2642,
      "72": 2643,
      "AM": 2644,
      "smith": 2645,
      "ĠSmith": 2646,
      "ĠSIEM": 2647,
      "ĠMongoDB": 2648,
      "ĠVue": 2649,
      "ĠStakeholder": 2650,
      "ĠArchitecture": 2651,
      "31": 2652,
      "36": 2653,
      "40": 2654,
      "70": 2655,
      "79": 2656,
      "96": 2657,
      "ium": 2658,
      "lin": 2659,
      "enium": 2660,
      "elenium": 2661,
      "ĠAzure": 2662,
      "ĠGD": 2663,
      "isual": 2664,
      "ĠVisual": 2665,
      "otlin": 2666,
      "ĠVisualization": 2667,
      "41": 2668,
      "75": 2669,
      "83": 2670,
      "man": 2671,
      "vu": 2672,
      "ĠCryptography": 2673,
      "ĠSelenium": 2674,
      "ĠAllocation": 2675,
      "ĠVu": 2676,
      "ĠIV": 2677,
      "ĠIAM": 2678,
      "ĠGitBook": 2679,
      "RPC": 2680,
      "ĠTypography": 2681,
      "PMP": 2682,
      "12": 2683,
      "92": 2684,
      "99": 2685,
      "garcia": 2686,
      "ĠDaniel": 2687,
      "ĠTailwind": 2688,
      "ĠGarcia": 2689,
      "Ġdaniel": 2690,
      "ĠEmail": 2691,
      "Project": 2692,
      "++": 2693,
      "omation": 2694,
      "28": 2695,
      "73": 2696,
      "91": 2697,
      "ĠScrum": 2698,
      "ĠAutomation": 2699,
      "ĠPostgreSQL": 2700,
      "56": 2701,
      "90": 2702,
      "AWS": 2703,
      "jones": 2704,
      "nguyen": 2705,
      "vo": 2706,
      "ert": 2707,
      "orking": 2708,
      "obert": 2709,
      "ĠRobert": 2710,
      "ĠNguyen": 2711,
      "ĠVo": 2712,
      "ĠVision": 2713,
      "ĠLevel": 2714,
      "ĠgRPC": 2715,
      "ĠJones": 2716,
      "Ġrober": 2717,
      "ĠPhuong": 2718,
      "ĠNode": 2719,
      "ĠSEM": 2720,
      "ĠKotlin": 2721,
      "ĠPostman": 2722,
      "Ġphuong": 2723,
      "Ġrobert": 2724,
      "11": 2725,
      "ĠPM": 2726,
      "ĠFoundation": 2727,
      "65": 2728,
      "88": 2729,
      "lut": 2730,
      "press": 2731,
      "lutter": 2732,
      "02": 2733,
      "XD": 2734,
      "ĠXD": 2735,
      "Ġhuong": 2736,
      "ĠJames": 2737,
      "ĠJessica": 2738,
      "ĠHuong": 2739,
      "arter": 2740,
      "Ġjames": 2741,
      "Ġjessica": 2742,
      "ĠCharter": 2743,
      "ĠNetworking": 2744,
      "19": 2745,
      "49": 2746,
      "66": 2747,
      "gor": 2748,
      "ms": 2749,
      "edis": 2750,
      "Ġanh": 2751,
      "ithms": 2752,
      "ĠFlutter": 2753,
      "ĠAnh": 2754,
      "ĠQuan": 2755,
      "ĠTester": 2756,
      "Ġquan": 2757,
      "++,": 2758,
      "gorithms": 2759,
      "08": 2760,
      "ool": 2761,
      "chool": 2762,
      "ĠDavid": 2763,
      "ĠGiang": 2764,
      "Ġdavid": 2765,
      "ĠNgoc": 2766,
      "Ġgiang": 2767,
      "ĠHum": 2768,
      "Ġngoc": 2769,
      "ĠExpress": 2770,
      "Ġmai": 2771,
      "ĠMai": 2772,
      "Adobe": 2773,
      "ĠHuman": 2774,
      "39": 2775,
      "48": 2776,
      "55": 2777,
      "77": 2778,
      "94": 2779,
      "Society": 2780,
      "Ġtuan": 2781,
      "ĠTuan": 2782,
      "Ġminh": 2783,
      "ĠLan": 2784,
      "Ġlan": 2785,
      "ĠAlgorithms": 2786,
      "25": 2787,
      "Ġtrang": 2788,
      "ĠMem": 2789,
      "ĠMichael": 2790,
      "ĠTrang": 2791,
      "Ġmichael": 2792,
      "ĠRedis": 2793,
      "Ġhuy": 2794,
      "Ġthomas": 2795,
      "ĠNam": 2796,
      "Ġvy": 2797,
      "ĠVy": 2798,
      "ĠHuy": 2799,
      "ĠThomas": 2800,
      "ĠMember": 2801,
      "18": 2802,
      "47": 2803,
      "93": 2804,
      "Financial": 2805,
      "Ġthao": 2806,
      "acker": 2807,
      "ĠThao": 2808,
      "CSM": 2809,
      "ĠCSM": 2810,
      "ĠJavaScript": 2811,
      "33": 2812,
      "44": 2813,
      "52": 2814,
      "AC": 2815,
      "righ": 2816,
      "wrigh": 2817,
      "ĠPhuc": 2818,
      "laywrigh": 2819,
      "Ġphuc": 2820,
      "laywright": 2821,
      ").\",": 2822,
      "01": 2823,
      "38": 2824,
      "68": 2825,
      "TE": 2826,
      "ĠJohn": 2827,
      "Ġ11": 2828,
      "Ġjohn": 2829,
      "HubSpot": 2830,
      "81": 2831,
      "KA": 2832,
      "ĠDuy": 2833,
      "ĠLinh": 2834,
      "ĠAdministrator": 2835,
      "Ġlinh": 2836,
      "CSP": 2837,
      "Ġduy": 2838,
      "22": 2839,
      "61": 2840,
      "PMI": 2841,
      "05": 2842,
      "27": 2843,
      "69": 2844,
      "Ġsarah": 2845,
      "ĠSarah": 2846,
      "ĠPlaywright": 2847,
      "ĠDeep": 2848,
      "09": 2849,
      "34": 2850,
      "53": 2851,
      "67": 2852,
      "98": 2853,
      "oang": 2854,
      "ĠUX": 2855,
      "Ġhoang": 2856,
      "ĠHub": 2857,
      "ĠHoang": 2858,
      "STC": 2859,
      "ĠHubSpot": 2860,
      "23": 2861,
      "37": 2862,
      "51": 2863,
      "71": 2864,
      "CE": 2865,
      "Ġviet": 2866,
      "Ġemily": 2867,
      "ĠEmily": 2868,
      "04": 2869,
      "54": 2870,
      "57": 2871,
      "59": 2872,
      "cul": 2873,
      "iov": 2874,
      "vanc": 2875,
      "ĠCard": 2876,
      "ascul": 2877,
      "ĠLif": 2878,
      "ĠSupport": 2879,
      "ACLS": 2880,
      "iovascul": 2881,
      "vanced": 2882,
      "ĠCardiovascul": 2883,
      "ĠLife": 2884,
      "ĠCardiovascular": 2885,
      "14": 2886,
      "32": 2887,
      "74": 2888,
      "FA": 2889,
      "blog": 2890,
      "bound": 2891,
      "ger": 2892,
      "ĠSchool": 2893,
      "ĠFront": 2894,
      "ĠInbound": 2895,
      "opyblog": 2896,
      "End": 2897,
      "ĠMarketer": 2898,
      "ĠPMC": 2899,
      "ĠCharterholder": 2900,
      "opyblogger": 2901,
      "03": 2902,
      "15": 2903,
      "62": 2904,
      "ĠSolutions": 2905,
      "63": 2906,
      "BM": 2907,
      "BAP": 2908,
      "EE": 2909,
      "HRM": 2910,
      "Py": 2911,
      "sion": 2912,
      "ĠGraduate": 2913,
      "ission": 2914,
      "ĠIndividual": 2915,
      "ĠAdmission": 2916,
      "ualifi": 2917,
      "ĠQualifi": 2918,
      "ademy": 2919,
      "ĠAcademy": 2920,
      "ĠTeaching": 2921,
      "ĠAssociation": 2922,
      "ĠQualification": 2923,
      "06": 2924,
      "42": 2925,
      "95": 2926,
      "Budget": 2927,
      "Docker": 2928,
      "Hacker": 2929,
      "QB": 2930,
      "ĠCour": 2931,
      "letion": 2932,
      "racle": 2933,
      "ĠCompletion": 2934,
      "STQB": 2935,
      "ĠCourse": 2936,
      "58": 2937,
      "FL": 2938,
      "Hour": 2939,
      "IN": 2940,
      "tition": 2941,
      "ĠPrac": 2942,
      "action": 2943,
      "SOL": 2944,
      "Ġ120": 2945,
      "TESOL": 2946,
      "Python": 2947,
      "INCE": 2948,
      "titioner": 2949,
      "ĠPractitioner": 2950,
      "HR": 2951,
      "PBA": 2952,
      "ensed": 2953,
      "80": 2954,
      "97": 2955,
      "Facebook": 2956,
      "CSS": 2957,
      "Cont": 2958,
      "CCSM": 2959,
      "CKA": 2960,
      "IA": 2961,
      "TIA": 2962,
      "ĠPublic": 2963,
      "Inter": 2964,
      "CSMT": 2965,
      "Ex": 2966,
      "Jira": 2967,
      "TensorFlow": 2968,
      "WP": 2969,
      "reen": 2970,
      "ĠGreen": 2971,
      "ĠBelt": 2972,
      "CSWP": 2973,
      "Product": 2974,
      "Agile": 2975,
      "Con": 2976,
      "Data": 2977,
      "Meta": 2978,
      "SE": 2979,
      "ces": 2980,
      "soci": 2981,
      "ants": 2982,
      "ources": 2983,
      "ĠResources": 2984,
      "ĠAccountants": 2985,
      "Associ": 2986,
      "ĠChartered": 2987,
      "Conf": 2988,
      "Association": 2989,
      "Corp": 2990,
      "Git": 2991,
      "Le": 2992,
      "MV": 2993,
      "Microsoft": 2994,
      "her": 2995,
      "Ġ&": 2996,
      "ĠCKA": 2997,
      "ĠSociety": 2998,
      "ashi": 2999,
      "Ġ40": 3000,
      "Content": 3001,
      "Lean": 3002,
      "MVA": 3003,
      "ashiCorp": 3004,
      "API": 3005,
      "Accoun": 3006,
      "Bar": 3007,
      "BCP": 3008,
      "Copywriting": 3009,
      "CFA": 3010,
      "Copyblogger": 3011,
      "JS": 3012,
      "Oracle": 3013,
      "School": 3014,
      "cel": 3015,
      "gma": 3016,
      "iance": 3017,
      "less": 3018,
      "oard": 3019,
      "tionless": 3020,
      "ragma": 3021,
      "ĠAll": 3022,
      "ĠEth": 3023,
      "Ġ26": 3024,
      "ĠFric": 3025,
      "ĠHacker": 3026,
      "other": 3027,
      "Ġ59": 3028,
      "ĠAdvanced": 3029,
      "ĠPharmacother": 3030,
      "Advanced": 3031,
      "Budgeting": 3032,
      "Excel": 3033,
      "Account": 3034,
      "BCPS": 3035,
      "Schools": 3036,
      "ragmatic": 3037,
      "ĠAlliance": 3038,
      "ĠEthical": 3039,
      "ĠFrictionless": 3040,
      "ĠPharmacotherapy": 3041,
      "App": 3042,
      "CBAP": 3043,
      "IBM": 3044,
      "ISTQB": 3045,
      "Patient": 3046,
      "RN": 3047,
      "SHRM": 3048,
      "ty": 3049,
      "ered": 3050,
      "ĠCFA": 3051,
      "ĠCopyblogger": 3052,
      "istered": 3053,
      "egistered": 3054,
      "ĠSpecialty": 3055,
      "State": 3056,
      "TEFL": 3057,
      "Apple": 3058,
      "Comp": 3059,
      "Lic": 3060,
      "MATLAB": 3061,
      "Post": 3062,
      "Su": 3063,
      "ĠCBAP": 3064,
      "ĠSHRM": 3065,
      "ĠIBM": 3066,
      "Ġ55": 3067,
      "ĠState": 3068,
      "Ġ65": 3069,
      "ccessHacker": 3070,
      "Ġ90": 3071,
      "Process": 3072,
      "ĠSuccessHacker": 3073,
      "ĠApple": 3074,
      "PRINCE": 3075,
      "Interaction": 3076,
      "SEO": 3077,
      "Conflict": 3078,
      "APICS": 3079,
      "Licensed": 3080,
      "SuccessHacker": 3081,
      "+\",": 3082,
      "Bran": 3083,
      "Cl": 3084,
      "Re": 3085,
      "RINCE": 3086,
      "ĠPRINCE": 3087,
      "Ġ35": 3088,
      "Ġ39": 3089,
      "ĠBar": 3090,
      "ĠISTQB": 3091,
      "Ġ46": 3092,
      "Ġ70": 3093,
      "Ġ75": 3094,
      "ĠInteraction": 3095,
      "CompTIA": 3096,
      "Al": 3097,
      "CPA": 3098,
      "CIS": 3099,
      "EFL": 3100,
      "Java": 3101,
      "Negoti": 3102,
      "Onboarding": 3103,
      "Operations": 3104,
      "Performance": 3105,
      "PHR": 3106,
      "REST": 3107,
      "ĠCPA": 3108,
      "ĠTEFL": 3109,
      "Ġ19": 3110,
      "Ġ86": 3111,
      "ĠOracle": 3112,
      "CSCP": 3113,
      "Ġ99": 3114,
      "Ġ724": 3115,
      "ĠLicensed": 3116,
      "Inventory": 3117,
      "ĠPMI": 3118,
      "ĠPMP": 3119,
      "CISSP": 3120,
      "Negotiation": 3121,
      "Aut": 3122,
      "Board": 3123,
      "CI": 3124,
      "Corpor": 3125,
      "CCA": 3126,
      "CRM": 3127,
      "ESL": 3128,
      "Figma": 3129,
      "FMVA": 3130,
      "GIS": 3131,
      "HashiCorp": 3132,
      "IoT": 3133,
      "Markdown": 3134,
      "Medication": 3135,
      "Netw": 3136,
      "Pragmatic": 3137,
      "Team": 3138,
      "Typ": 3139,
      "Tableau": 3140,
      "ĠACCA": 3141,
      "Ġ22": 3142,
      "Ġ287": 3143,
      "ĠLL": 3144,
      "ĠIEE": 3145,
      "Ġ53": 3146,
      "Educational": 3147,
      "ĠCompTIA": 3148,
      "Ġ760": 3149,
      "Proofreading": 3150,
      "IEEE": 3151,
      "ACCA": 3152,
      "Corporate": 3153,
      "ĠIEEE": 3154,
      "Cryptography": 3155,
      "Dispensing": 3156,
      "EH": 3157,
      "IV": 3158,
      "Linux": 3159,
      "Market": 3160,
      "QuickBooks": 3161,
      "Registered": 3162,
      "SolidWorks": 3163,
      "Talent": 3164,
      "ĠCEH": 3165,
      "ĠPHR": 3166,
      "Ġ33": 3167,
      "Ġ36": 3168,
      "ĠFMVA": 3169,
      "ĠHashiCorp": 3170,
      "Ġ54": 3171,
      "Ġ510": 3172,
      "Ġ516": 3173,
      "Ġ94": 3174,
      "Ġ982": 3175,
      "Ġ72": 3176,
      "Ġ730": 3177,
      "Prototyping": 3178,
      "ĠCSCP": 3179,
      "Pharmac": 3180,
      "CEH": 3181,
      "Intercom": 3182,
      "PostgreSQL": 3183,
      "Branding": 3184,
      "React": 3185,
      "Altium": 3186,
      "AutoCAD": 3187,
      "389": 3188,
      "Blogging": 3189,
      "Bash": 3190,
      "Cloud": 3191,
      "Circuit": 3192,
      "CUDA": 3193,
      "Drug": 3194,
      "ERP": 3195,
      "Editing": 3196,
      "GD": 3197,
      "GAAP": 3198,
      "Kubernetes": 3199,
      "Kotlin": 3200,
      "Litigation": 3201,
      "Power": 3202,
      "Sci": 3203,
      "SSP": 3204,
      "SMM": 3205,
      "Vue": 3206,
      "kit": 3207,
      "ĠPragmatic": 3208,
      "Ġ24": 3209,
      "Ġ286": 3210,
      "Ġ34": 3211,
      "ĠBoard": 3212,
      "ĠRegistered": 3213,
      "Ġ14": 3214,
      "Ġ16": 3215,
      "Ġ189": 3216,
      "Ġ52": 3217,
      "Ġ524": 3218,
      "Logistics": 3219,
      "Ġ80": 3220,
      "Ġ88": 3221,
      "Ġ89": 3222,
      "Ġ816": 3223,
      "Ġ836": 3224,
      "Ġ825": 3225,
      "Ġ44": 3226,
      "Ġ47": 3227,
      "Ġ48": 3228,
      "Ġ410": 3229,
      "Ġ460": 3230,
      "Ġ487": 3231,
      "Ġ445": 3232,
      "Ġ467": 3233,
      "Ġ62": 3234,
      "Ġ64": 3235,
      "Ġ686": 3236,
      "ĠAPICS": 3237,
      "ĠCISSP": 3238,
      "Ġ93": 3239,
      "Ġ924": 3240,
      "Ġ76": 3241,
      "Ġ750": 3242,
      "Ġ775": 3243,
      "Prometheus": 3244,
      "ructural": 3245,
      "Information": 3246,
      "Intellectual": 3247,
      "Structural": 3248,
      "Classroom": 3249,
      "Scikit": 3250,
      "07": 3251,
      "An": 3252,
      "Accounts": 3253,
      "Bug": 3254,
      "Deep": 3255,
      "FEA": 3256,
      "HTML": 3257,
      "Lead": 3258,
      "Microservices": 3259,
      "Machine": 3260,
      "Manufacturing": 3261,
      "MongoDB": 3262,
      "NLP": 3263,
      "Penetration": 3264,
      "Playwright": 3265,
      "Site": 3266,
      "SIEM": 3267,
      "Technical": 3268,
      "Terraform": 3269,
      "Triage": 3270,
      "Tailwind": 3271,
      "UI": 3272,
      "User": 3273,
      "Vendor": 3274,
      "Wound": 3275,
      "WordPress": 3276,
      "Wireframing": 3277,
      "gRPC": 3278,
      "Ġ29": 3279,
      "Ġ284": 3280,
      "Ġ210": 3281,
      "Ġ278": 3282,
      "Ġ243": 3283,
      "Ġ285": 3284,
      "Ġ292": 3285,
      "Ġ290": 3286,
      "Ġ239": 3287,
      "Ġ31": 3288,
      "Ġ330": 3289,
      "Ġ388": 3290,
      "Ġ366": 3291,
      "Ġ393": 3292,
      "Ġ13": 3293,
      "Ġ160": 3294,
      "Ġ116": 3295,
      "Ġ167": 3296,
      "Ġ57": 3297,
      "Ġ58": 3298,
      "Ġ584": 3299,
      "Ġ529": 3300,
      "Ġ517": 3301,
      "Ġ586": 3302,
      "Ġ545": 3303,
      "Ġ583": 3304,
      "Ġ537": 3305,
      "Ġ81": 3306,
      "Ġ82": 3307,
      "Ġ83": 3308,
      "Ġ84": 3309,
      "Ġ87": 3310,
      "Ġ820": 3311,
      "Ġ835": 3312,
      "Ġ817": 3313,
      "Ġ828": 3314,
      "Ġ41": 3315,
      "Ġ42": 3316,
      "Ġ482": 3317,
      "Ġ476": 3318,
      "Ġ440": 3319,
      "Ġ63": 3320,
      "Ġ629": 3321,
      "Ġ855": 3322,
      "Ġ458": 3323,
      "Ġ91": 3324,
      "Ġ92": 3325,
      "Ġ95": 3326,
      "Ġ97": 3327,
      "Ġ950": 3328,
      "Ġ989": 3329,
      "Ġ929": 3330,
      "Ġ985": 3331,
      "Ġ988": 3332,
      "Ġ933": 3333,
      "Ġ71": 3334,
      "Ġ79": 3335,
      "Ġ789": 3336,
      "Ġ702": 3337,
      "Ġ749": 3338,
      "Ġ781": 3339,
      "MLOps": 3340,
      "InDesign": 3341,
      "Student": 3342,
      "CPR": 3343,
      "138": 3344,
      "139": 3345,
      "754": 3346,
      "SEM": 3347,
      "Confluence": 3348,
      "Postman": 3349,
      "Client": 3350,
      "JavaScript": 3351,
      "Network": 3352,
      "Typography": 3353,
      "Pharmacology": 3354,
      "Android": 3355,
      ").": 3356,
      "Bloomberg": 3357,
      "Ch": 3358,
      "Customer": 3359,
      "Creative": 3360,
      "Curriculum": 3361,
      "Em": 3362,
      "GCP": 3363,
      "KPI": 3364,
      "Layout": 3365,
      "Lesson": 3366,
      "Manual": 3367,
      "OWASP": 3368,
      "Pandas": 3369,
      "PLC": 3370,
      "Redis": 3371,
      "Sketch": 3372,
      "Vector": 3373,
      "Webpack": 3374,
      "Ġ27": 3375,
      "Ġ282": 3376,
      "Ġ289": 3377,
      "Ġ216": 3378,
      "Ġ220": 3379,
      "Ġ226": 3380,
      "Ġ217": 3381,
      "Ġ236": 3382,
      "Ġ279": 3383,
      "Ġ212": 3384,
      "Ġ211": 3385,
      "Ġ249": 3386,
      "Ġ293": 3387,
      "Ġ223": 3388,
      "Ġ214": 3389,
      "Ġ32": 3390,
      "Ġ37": 3391,
      "Ġ350": 3392,
      "Ġ360": 3393,
      "Ġ329": 3394,
      "Ġ321": 3395,
      "Ġ336": 3396,
      "Ġ312": 3397,
      "Ġ319": 3398,
      "Ġ349": 3399,
      "Ġ347": 3400,
      "Ġ322": 3401,
      "Ġ3138": 3402,
      "Ġ207": 3403,
      "Ġ184": 3404,
      "Ġ130": 3405,
      "Ġ170": 3406,
      "Ġ196": 3407,
      "Ġ199": 3408,
      "Ġ194": 3409,
      "Ġ162": 3410,
      "Ġ546": 3411,
      "Ġ536": 3412,
      "Ġ541": 3413,
      "Ġ548": 3414,
      "Ġ547": 3415,
      "Ġ567": 3416,
      "Ġ551": 3417,
      "Ġ559": 3418,
      "Ġ800": 3419,
      "Ġ884": 3420,
      "Ġ860": 3421,
      "Ġ864": 3422,
      "Ġ826": 3423,
      "Ġ876": 3424,
      "Ġ885": 3425,
      "Ġ890": 3426,
      "Ġ802": 3427,
      "Ġ819": 3428,
      "Ġ808": 3429,
      "Ġ848": 3430,
      "Ġ844": 3431,
      "Ġ881": 3432,
      "Ġ861": 3433,
      "Ġ806": 3434,
      "Ġ49": 3435,
      "Ġ400": 3436,
      "Ġ464": 3437,
      "Ġ446": 3438,
      "Ġ479": 3439,
      "Ġ473": 3440,
      "Ġ488": 3441,
      "Ġ402": 3442,
      "Ġ408": 3443,
      "Ġ494": 3444,
      "Ġ433": 3445,
      "Ġ67": 3446,
      "Ġ69": 3447,
      "Ġ650": 3448,
      "Ġ682": 3449,
      "Ġ689": 3450,
      "Ġ616": 3451,
      "Ġ630": 3452,
      "Ġ621": 3453,
      "Ġ612": 3454,
      "Ġ618": 3455,
      "Ġ668": 3456,
      "Ġ653": 3457,
      "Ġ654": 3458,
      "Ġ858": 3459,
      "Ġ305": 3460,
      "Ġ123": 3461,
      "Ġ107": 3462,
      "Ġ96": 3463,
      "Ġ910": 3464,
      "Ġ930": 3465,
      "Ġ917": 3466,
      "Ġ931": 3467,
      "Ġ970": 3468,
      "Ġ966": 3469,
      "Ġ952": 3470,
      "Ġ74": 3471,
      "Ġ78": 3472,
      "Ġ764": 3473,
      "Ġ713": 3474,
      "Ġ729": 3475,
      "Ġ716": 3476,
      "Ġ720": 3477,
      "Ġ735": 3478,
      "Ġ721": 3479,
      "Ġ770": 3480,
      "Ġ712": 3481,
      "Ġ799": 3482,
      "Ġ755": 3483,
      "Ġ733": 3484,
      "Ġ768": 3485,
      "Ġ761": 3486,
      "Ġ714": 3487,
      "Ġ763": 3488,
      "Procurement": 3489,
      "Bookkeeping": 3490,
      "Asana": 3491,
      "434": 3492,
      "758": 3493,
      "Contract": 3494,
      "Express": 3495,
      "GitBook": 3496,
      "Ġ407": 3497,
      "Ġ2610": 3498,
      "Brand": 3499,
      "Requirements": 3500,
      "Networking": 3501,
      "TypeScript": 3502,
      "Change": 3503,
      "Employee": 3504,
      "Azure": 3505,
      "Conc": 3506,
      "DITA": 3507,
      "Firewalls": 3508,
      "Flutter": 3509,
      "IAM": 3510,
      "Mailchimp": 3511,
      "Redux": 3512,
      "System": 3513,
      "Swift": 3514,
      "Tax": 3515,
      "UML": 3516,
      "Valuation": 3517,
      "Wireshark": 3518,
      "Ġ21": 3519,
      "Ġ23": 3520,
      "Ġ28": 3521,
      "Ġ264": 3522,
      "Ġ229": 3523,
      "Ġ276": 3524,
      "Ġ283": 3525,
      "Ġ291": 3526,
      "Ġ288": 3527,
      "Ġ266": 3528,
      "Ġ225": 3529,
      "Ġ218": 3530,
      "Ġ269": 3531,
      "Ġ298": 3532,
      "Ġ274": 3533,
      "Ġ242": 3534,
      "Ġ2389": 3535,
      "Ġ310": 3536,
      "Ġ364": 3537,
      "Ġ389": 3538,
      "Ġ324": 3539,
      "Ġ335": 3540,
      "Ġ376": 3541,
      "Ġ386": 3542,
      "Ġ331": 3543,
      "Ġ340": 3544,
      "Ġ370": 3545,
      "Ġ396": 3546,
      "Ġ373": 3547,
      "Ġ391": 3548,
      "Ġ394": 3549,
      "Ġ338": 3550,
      "Ġ315": 3551,
      "Ġ397": 3552,
      "Ġ203": 3553,
      "Ġ205": 3554,
      "Ġ17": 3555,
      "Ġ110": 3556,
      "Ġ182": 3557,
      "Ġ164": 3558,
      "Ġ135": 3559,
      "Ġ176": 3560,
      "Ġ186": 3561,
      "Ġ146": 3562,
      "Ġ172": 3563,
      "Ġ140": 3564,
      "Ġ112": 3565,
      "Ġ165": 3566,
      "Ġ177": 3567,
      "Ġ118": 3568,
      "Ġ133": 3569,
      "Ġ144": 3570,
      "Ġ198": 3571,
      "Ġ137": 3572,
      "Ġ171": 3573,
      "Ġ582": 3574,
      "Ġ513": 3575,
      "Ġ576": 3576,
      "Ġ585": 3577,
      "Ġ521": 3578,
      "Ġ592": 3579,
      "Ġ599": 3580,
      "Ġ556": 3581,
      "Ġ565": 3582,
      "Ġ588": 3583,
      "Ġ549": 3584,
      "Ġ566": 3585,
      "Ġ594": 3586,
      "Ġ593": 3587,
      "Ġ552": 3588,
      "Ġ538": 3589,
      "Ġ523": 3590,
      "Ġ571": 3591,
      "Ġ557": 3592,
      "Ġ514": 3593,
      "Ġ542": 3594,
      "Ġ580": 3595,
      "Ġ882": 3596,
      "Ġ889": 3597,
      "Ġ813": 3598,
      "Ġ824": 3599,
      "Ġ829": 3600,
      "Ġ830": 3601,
      "Ġ843": 3602,
      "Ġ886": 3603,
      "Ġ845": 3604,
      "Ġ840": 3605,
      "Ġ870": 3606,
      "Ġ896": 3607,
      "Ġ841": 3608,
      "Ġ812": 3609,
      "Ġ873": 3610,
      "Ġ865": 3611,
      "Ġ839": 3612,
      "Ġ894": 3613,
      "Ġ818": 3614,
      "Ġ893": 3615,
      "Ġ833": 3616,
      "Ġ827": 3617,
      "Ġ898": 3618,
      "Ġ804": 3619,
      "Ġ880": 3620,
      "Ġ413": 3621,
      "Ġ429": 3622,
      "Ġ416": 3623,
      "Ġ426": 3624,
      "Ġ417": 3625,
      "Ġ421": 3626,
      "Ġ472": 3627,
      "Ġ470": 3628,
      "Ġ496": 3629,
      "Ġ475": 3630,
      "Ġ412": 3631,
      "Ġ499": 3632,
      "Ġ428": 3633,
      "Ġ449": 3634,
      "Ġ466": 3635,
      "Ġ418": 3636,
      "Ġ447": 3637,
      "Ġ422": 3638,
      "Ġ405": 3639,
      "Ġ437": 3640,
      "Ġ432": 3641,
      "Ġ474": 3642,
      "Ġ463": 3643,
      "Ġ406": 3644,
      "Ġ497": 3645,
      "007": 3646,
      "Ġ61": 3647,
      "Ġ66": 3648,
      "Ġ687": 3649,
      "Ġ620": 3650,
      "Ġ635": 3651,
      "Ġ643": 3652,
      "Ġ645": 3653,
      "Ġ646": 3654,
      "Ġ631": 3655,
      "Ġ670": 3656,
      "Ġ696": 3657,
      "Ġ683": 3658,
      "Ġ628": 3659,
      "Ġ656": 3660,
      "Ġ648": 3661,
      "Ġ644": 3662,
      "Ġ622": 3663,
      "Ġ634": 3664,
      "Ġ657": 3665,
      "Ġ659": 3666,
      "Ġ614": 3667,
      "Ġ6139": 3668,
      "Ġ850": 3669,
      "Ġ856": 3670,
      "Ġ8549": 3671,
      "Ġ450": 3672,
      "Ġ4560": 3673,
      "Ġ154": 3674,
      "Ġ601": 3675,
      "Ġ308": 3676,
      "Ġ309": 3677,
      "Ġ255": 3678,
      "Ġ124": 3679,
      "Ġ125": 3680,
      "Ġ108": 3681,
      "Ġ98": 3682,
      "Ġ960": 3683,
      "Ġ964": 3684,
      "Ġ987": 3685,
      "Ġ978": 3686,
      "Ġ920": 3687,
      "Ġ935": 3688,
      "Ġ976": 3689,
      "Ġ986": 3690,
      "Ġ996": 3691,
      "Ġ992": 3692,
      "Ġ999": 3693,
      "Ġ956": 3694,
      "Ġ965": 3695,
      "Ġ908": 3696,
      "Ġ955": 3697,
      "Ġ994": 3698,
      "Ġ981": 3699,
      "Ġ905": 3700,
      "Ġ951": 3701,
      "Ġ971": 3702,
      "Ġ906": 3703,
      "Ġ980": 3704,
      "Ġ73": 3705,
      "Ġ710": 3706,
      "Ġ782": 3707,
      "Ġ743": 3708,
      "Ġ786": 3709,
      "Ġ785": 3710,
      "Ġ745": 3711,
      "Ġ740": 3712,
      "Ġ779": 3713,
      "Ġ791": 3714,
      "Ġ790": 3715,
      "Ġ711": 3716,
      "Ġ708": 3717,
      "Ġ752": 3718,
      "Ġ737": 3719,
      "Ġ704": 3720,
      "Ġ754": 3721,
      "Ġ795": 3722,
      "Ġ501": 3723,
      "Ġ507": 3724,
      "Stakeholder": 3725,
      "Resource": 3726,
      "876": 3727,
      "172": 3728,
      "++\",": 3729,
      "498": 3730,
      "PyTorch": 3731,
      "Ġ4028": 3732,
      "Ġ5979": 3733,
      "Ġ5564": 3734,
      "Ġ9086": 3735,
      "Ġ3585": 3736,
      "Ġ7016": 3737,
      "Algorithms": 3738,
      "Ġ9978": 3739,
      "Ġ2264": 3740,
      "Ġ5391": 3741,
      "Ġ7607": 3742,
      "Ġ5169": 3743,
      "Ġ7278": 3744,
      "Pharmacy": 3745,
      "Ġ1894": 3746,
      "Ġ8982": 3747,
      "Ġ8167": 3748,
      "Ġ4451": 3749,
      "Ġ6492": 3750,
      "Ġ2841": 3751,
      "Ġ2103": 3752,
      "Ġ2923": 3753,
      "Ġ5172": 3754,
      "Ġ5455": 3755,
      "Ġ8349": 3756,
      "Ġ8489": 3757,
      "Ġ8281": 3758,
      "Ġ4402": 3759,
      "Ġ4407": 3760,
      "Ġ9700": 3761,
      "Ġ7025": 3762,
      "Ġ2163": 3763,
      "Ġ3365": 3764,
      "Ġ3495": 3765,
      "Ġ6735": 3766,
      "Ġ6214": 3767,
      "Ġ7131": 3768,
      "Concrete": 3769,
      "Ġ3641": 3770,
      "Ġ7861": 3771
    },
    "merges": [
      [
        "i",
        "n"
      ],
      [
        "e",
        "r"
      ],
      [
        "t",
        "i"
      ],
      [
        "o",
        "n"
      ],
      [
        "e",
        "n"
      ],
      [
        "in",
        "g"
      ],
      [
        "Ġ",
        "a"
      ],
      [
        "e",
        "s"
      ],
      [
        "ti",
        "on"
      ],
      [
        "e",
        "d"
      ],
      [
        "a",
        "tion"
      ],
      [
        "Ġ",
        "\""
      ],
      [
        "a",
        "l"
      ],
      [
        "a",
        "r"
      ],
      [
        "i",
        "t"
      ],
      [
        "o",
        "r"
      ],
      [
        "r",
        "o"
      ],
      [
        "e",
        "c"
      ],
      [
        "a",
        "t"
      ],
      [
        "a",
        "n"
      ],
      [
        "c",
        "ation"
      ],
      [
        "s",
        "t"
      ],
      [
        "Ġ",
        "o"
      ],
      [
        "i",
        "l"
      ],
      [
        "Ġa",
        "n"
      ],
      [
        "e",
        "l"
      ],
      [
        "c",
        "e"
      ],
      [
        "Ġ",
        "s"
      ],
      [
        "Ġ",
        "C"
      ],
      [
        "Ġ",
        "S"
      ],
      [
        "e",
        "t"
      ],
      [
        "Ġan",
        "d"
      ],
      [
        "i",
        "en"
      ],
      [
        "\"",
        ":"
      ],
      [
        "Ġ",
        "c"
      ],
      [
        "p",
        "er"
      ],
      [
        "Ġ",
        "t"
      ],
      [
        "ien",
        "ce"
      ],
      [
        "f",
        "i"
      ],
      [
        "r",
        "a"
      ],
      [
        "\"",
        ","
      ],
      [
        "<",
        "|"
      ],
      [
        "|",
        ">"
      ],
      [
        "e",
        "x"
      ],
      [
        "Ġ",
        "A"
      ],
      [
        "Ġo",
        "f"
      ],
      [
        "Ġ",
        "M"
      ],
      [
        "Ġ",
        "in"
      ],
      [
        "en",
        "t"
      ],
      [
        "r",
        "e"
      ],
      [
        "Ġ",
        "P"
      ],
      [
        "Ġ",
        "p"
      ],
      [
        "Ġ",
        "("
      ],
      [
        "es",
        "s"
      ],
      [
        "c",
        "h"
      ],
      [
        "o",
        "b"
      ],
      [
        "ex",
        "per"
      ],
      [
        "l",
        "e"
      ],
      [
        "exper",
        "ience"
      ],
      [
        "u",
        "s"
      ],
      [
        "v",
        "er"
      ],
      [
        "d",
        "u"
      ],
      [
        "at",
        "ed"
      ],
      [
        "i",
        "es"
      ],
      [
        "l",
        "o"
      ],
      [
        "il",
        "l"
      ],
      [
        "Ġ",
        "D"
      ],
      [
        "Ġ",
        "T"
      ],
      [
        "er",
        "ti"
      ],
      [
        "erti",
        "fi"
      ],
      [
        "Ġ",
        "G"
      ],
      [
        "a",
        "m"
      ],
      [
        "Ġ",
        "w"
      ],
      [
        "Ġ",
        "m"
      ],
      [
        "Ġ",
        "b"
      ],
      [
        "e",
        "m"
      ],
      [
        "k",
        "ill"
      ],
      [
        "v",
        "e"
      ],
      [
        "i",
        "c"
      ],
      [
        "j",
        "ec"
      ],
      [
        "e",
        "ar"
      ],
      [
        "a",
        "s"
      ],
      [
        "kill",
        "s"
      ],
      [
        "ed",
        "u"
      ],
      [
        "Ġ",
        "d"
      ],
      [
        "cation",
        "s"
      ],
      [
        "it",
        "y"
      ],
      [
        "Ġ",
        "E"
      ],
      [
        "Ġp",
        "ro"
      ],
      [
        "o",
        "m"
      ],
      [
        "Ġ",
        "2"
      ],
      [
        "en",
        "d"
      ],
      [
        "Ġ",
        "experience"
      ],
      [
        "Ġ",
        "3"
      ],
      [
        "Ġ",
        "B"
      ],
      [
        "u",
        "r"
      ],
      [
        "b",
        "ies"
      ],
      [
        "ob",
        "bies"
      ],
      [
        "ertifi",
        "cations"
      ],
      [
        "Ġ",
        "R"
      ],
      [
        "ti",
        "ve"
      ],
      [
        "i",
        "g"
      ],
      [
        "u",
        "n"
      ],
      [
        "Ġ",
        "r"
      ],
      [
        "in",
        "e"
      ],
      [
        "Ġ",
        "y"
      ],
      [
        "a",
        "g"
      ],
      [
        "i",
        "ver"
      ],
      [
        "i",
        "on"
      ],
      [
        "Ġ",
        "U"
      ],
      [
        "ĠG",
        "ra"
      ],
      [
        "Ġy",
        "ear"
      ],
      [
        "Ġ2",
        "0"
      ],
      [
        "m",
        "ent"
      ],
      [
        "Ġ",
        "f"
      ],
      [
        "u",
        "l"
      ],
      [
        "Ġt",
        "o"
      ],
      [
        "i",
        "st"
      ],
      [
        "g",
        "ine"
      ],
      [
        "u",
        "t"
      ],
      [
        "it",
        "h"
      ],
      [
        "Ġ",
        "h"
      ],
      [
        "Ġyear",
        "s"
      ],
      [
        "Ġ",
        "-"
      ],
      [
        "ĠGra",
        "du"
      ],
      [
        "P",
        "A"
      ],
      [
        ".",
        "\","
      ],
      [
        "G",
        "PA"
      ],
      [
        "jec",
        "tive"
      ],
      [
        "edu",
        "cation"
      ],
      [
        "ĠGradu",
        "ated"
      ],
      [
        "gine",
        "er"
      ],
      [
        "l",
        "y"
      ],
      [
        "a",
        "ch"
      ],
      [
        "f",
        "ess"
      ],
      [
        "ion",
        "al"
      ],
      [
        "fess",
        "ional"
      ],
      [
        "h",
        "n"
      ],
      [
        "y",
        "st"
      ],
      [
        "s",
        "ity"
      ],
      [
        "iver",
        "sity"
      ],
      [
        "n",
        "am"
      ],
      [
        "a",
        "d"
      ],
      [
        "a",
        "il"
      ],
      [
        "Ġa",
        "t"
      ],
      [
        "Ġt",
        "h"
      ],
      [
        "Ġ",
        "N"
      ],
      [
        "r",
        "it"
      ],
      [
        "ĠE",
        "n"
      ],
      [
        "Ġ",
        "v"
      ],
      [
        "i",
        "s"
      ],
      [
        "Ġw",
        "ith"
      ],
      [
        "Ġb",
        "y"
      ],
      [
        "lo",
        "g"
      ],
      [
        "Ġ",
        "F"
      ],
      [
        "ec",
        "hn"
      ],
      [
        "ĠS",
        "c"
      ],
      [
        "Ġ",
        "V"
      ],
      [
        "t",
        "s"
      ],
      [
        "Ġ",
        "L"
      ],
      [
        "an",
        "ag"
      ],
      [
        "i",
        "d"
      ],
      [
        "Ġ",
        "g"
      ],
      [
        "ĠEn",
        "gineer"
      ],
      [
        "ĠT",
        "echn"
      ],
      [
        "k",
        "et"
      ],
      [
        "Ġ",
        "I"
      ],
      [
        "Ġ",
        "on"
      ],
      [
        "n",
        "iversity"
      ],
      [
        "ĠU",
        "niversity"
      ],
      [
        "v",
        "el"
      ],
      [
        "o",
        "log"
      ],
      [
        "olog",
        "y"
      ],
      [
        "as",
        "s"
      ],
      [
        ".",
        "\\"
      ],
      [
        "ĠM",
        "anag"
      ],
      [
        "ĠP",
        "ro"
      ],
      [
        "Ġ",
        "J"
      ],
      [
        "on",
        "t"
      ],
      [
        "yst",
        "em"
      ],
      [
        "ĠSc",
        "ience"
      ],
      [
        "i",
        "m"
      ],
      [
        "ig",
        "n"
      ],
      [
        "Ġpro",
        "fessional"
      ],
      [
        "el",
        "or"
      ],
      [
        "ach",
        "elor"
      ],
      [
        "o",
        "l"
      ],
      [
        "g",
        "et"
      ],
      [
        "a",
        "c"
      ],
      [
        "a",
        "w"
      ],
      [
        "ĠTechn",
        "ology"
      ],
      [
        "o",
        "o"
      ],
      [
        "f",
        "or"
      ],
      [
        "Ġ",
        "1"
      ],
      [
        "h",
        "on"
      ],
      [
        "Ġ",
        "H"
      ],
      [
        "at",
        "e"
      ],
      [
        "m",
        "ail"
      ],
      [
        "t",
        "ing"
      ],
      [
        "Ġs",
        "kills"
      ],
      [
        "Ġ20",
        "1"
      ],
      [
        "rit",
        "er"
      ],
      [
        "d",
        "s"
      ],
      [
        "ĠI",
        "n"
      ],
      [
        "Ġ",
        "ro"
      ],
      [
        "us",
        "er"
      ],
      [
        "im",
        "p"
      ],
      [
        ")",
        "\","
      ],
      [
        "ĠR",
        "et"
      ],
      [
        "p",
        "p"
      ],
      [
        "c",
        "om"
      ],
      [
        "o",
        "t"
      ],
      [
        "es",
        "ign"
      ],
      [
        "k",
        "ing"
      ],
      [
        "e",
        "vel"
      ],
      [
        "Ġ",
        "imp"
      ],
      [
        "an",
        "t"
      ],
      [
        "v",
        "ing"
      ],
      [
        "ul",
        "l"
      ],
      [
        "Ġ",
        "5"
      ],
      [
        "evel",
        "o"
      ],
      [
        "Ġpro",
        "jec"
      ],
      [
        "Ġro",
        "le"
      ],
      [
        "Ġv",
        "al"
      ],
      [
        "du",
        "cation"
      ],
      [
        "c",
        "i"
      ],
      [
        "for",
        "m"
      ],
      [
        ".",
        "<|"
      ],
      [
        "ĠA",
        "n"
      ],
      [
        "Ġc",
        "o"
      ],
      [
        "c",
        "c"
      ],
      [
        "Ġ",
        "nam"
      ],
      [
        "er",
        "s"
      ],
      [
        "S",
        "O"
      ],
      [
        "p",
        "or"
      ],
      [
        "E",
        "ducation"
      ],
      [
        "L",
        "o"
      ],
      [
        "E",
        "mail"
      ],
      [
        "\"",
        "}"
      ],
      [
        "<",
        "/"
      ],
      [
        "F",
        "ull"
      ],
      [
        "R",
        "aw"
      ],
      [
        "S",
        "kills"
      ],
      [
        "T",
        "ar"
      ],
      [
        "Y",
        "o"
      ],
      [
        "b",
        "jective"
      ],
      [
        "c",
        "ertifications"
      ],
      [
        "h",
        "obbies"
      ],
      [
        "s",
        "kills"
      ],
      [
        "s",
        "ystem"
      ],
      [
        "{",
        "\""
      ],
      [
        "Ġ",
        "fi"
      ],
      [
        "Ġ",
        "education"
      ],
      [
        "Ġa",
        "re"
      ],
      [
        "es",
        "e"
      ],
      [
        "Ġ\"",
        "-"
      ],
      [
        "Ġo",
        "bjective"
      ],
      [
        "el",
        "ds"
      ],
      [
        "ĠC",
        "V"
      ],
      [
        "Ġc",
        "ertifications"
      ],
      [
        "ob",
        "jective"
      ],
      [
        "Ġw",
        "riter"
      ],
      [
        "ur",
        "n"
      ],
      [
        "ist",
        "ant"
      ],
      [
        "Ġh",
        "obbies"
      ],
      [
        "Ġth",
        "ese"
      ],
      [
        "Ġon",
        "ly"
      ],
      [
        "ass",
        "istant"
      ],
      [
        "ĠJ",
        "SO"
      ],
      [
        "ĠRet",
        "urn"
      ],
      [
        "Ġval",
        "id"
      ],
      [
        "Ġnam",
        "e"
      ],
      [
        "Lo",
        "cation"
      ],
      [
        "\"}",
        "</"
      ],
      [
        "Tar",
        "get"
      ],
      [
        "Yo",
        "u"
      ],
      [
        "Ġfi",
        "elds"
      ],
      [
        "ĠJSO",
        "N"
      ],
      [
        "Ġ",
        "le"
      ],
      [
        "a",
        "b"
      ],
      [
        "u",
        "d"
      ],
      [
        "edu",
        "c"
      ],
      [
        "Ġr",
        "educ"
      ],
      [
        "ar",
        "ket"
      ],
      [
        "Ġ",
        "W"
      ],
      [
        "ec",
        "t"
      ],
      [
        "ti",
        "m"
      ],
      [
        "ĠAn",
        "al"
      ],
      [
        "ĠD",
        "esign"
      ],
      [
        "h",
        "i"
      ],
      [
        "in",
        "ess"
      ],
      [
        "us",
        "iness"
      ],
      [
        "ar",
        "e"
      ],
      [
        "P",
        "hon"
      ],
      [
        "Ġ",
        "+"
      ],
      [
        "Phon",
        "e"
      ],
      [
        "ĠA",
        "d"
      ],
      [
        "e",
        "e"
      ],
      [
        "u",
        "st"
      ],
      [
        "Ġ",
        "re"
      ],
      [
        "an",
        "g"
      ],
      [
        "Ġprojec",
        "ts"
      ],
      [
        "om",
        "p"
      ],
      [
        "H",
        "obbies"
      ],
      [
        "C",
        "ertifications"
      ],
      [
        "r",
        "ation"
      ],
      [
        "in",
        "an"
      ],
      [
        "n",
        "ing"
      ],
      [
        "ĠEngineer",
        "ing"
      ],
      [
        "i",
        "et"
      ],
      [
        "a",
        "in"
      ],
      [
        "ĠManag",
        "er"
      ],
      [
        "Ġ",
        "n"
      ],
      [
        "Ġ",
        "8"
      ],
      [
        "ti",
        "c"
      ],
      [
        "ĠV",
        "iet"
      ],
      [
        "em",
        "ent"
      ],
      [
        "Ġ20",
        "2"
      ],
      [
        "i",
        "r"
      ],
      [
        "u",
        "re"
      ],
      [
        "a",
        "y"
      ],
      [
        "ra",
        "c"
      ],
      [
        "o",
        "un"
      ],
      [
        "in",
        "es"
      ],
      [
        "ĠB",
        "usiness"
      ],
      [
        "ar",
        "t"
      ],
      [
        "Ġ",
        "ex"
      ],
      [
        "Ġ",
        "en"
      ],
      [
        "re",
        "as"
      ],
      [
        "B",
        "achelor"
      ],
      [
        "ĠB",
        "achelor"
      ],
      [
        "o",
        "c"
      ],
      [
        "Ġ",
        "O"
      ],
      [
        "a",
        "st"
      ],
      [
        "Ġo",
        "ver"
      ],
      [
        "ĠAd",
        "m"
      ],
      [
        "o",
        "f"
      ],
      [
        "in",
        "ist"
      ],
      [
        "ĠAdm",
        "inist"
      ],
      [
        "ation",
        "al"
      ],
      [
        "u",
        "p"
      ],
      [
        "Ġ",
        "us"
      ],
      [
        "Ġus",
        "ing"
      ],
      [
        "Ġ",
        "st"
      ],
      [
        "ĠS",
        "t"
      ],
      [
        "Ġ",
        "l"
      ],
      [
        "e",
        "am"
      ],
      [
        "ro",
        "s"
      ],
      [
        "ĠAdminist",
        "ration"
      ],
      [
        "ĠViet",
        "nam"
      ],
      [
        "rit",
        "ing"
      ],
      [
        "ast",
        "er"
      ],
      [
        "Ġ",
        "4"
      ],
      [
        "al",
        "es"
      ],
      [
        "r",
        "ch"
      ],
      [
        "rch",
        "it"
      ],
      [
        "al",
        "l"
      ],
      [
        "reas",
        "ing"
      ],
      [
        "of",
        "t"
      ],
      [
        "e",
        "ad"
      ],
      [
        "e",
        "w"
      ],
      [
        "Ġreduc",
        "ing"
      ],
      [
        "0",
        "0"
      ],
      [
        "Ġ",
        "|"
      ],
      [
        "Ġa",
        "pp"
      ],
      [
        "r",
        "i"
      ],
      [
        "Ġ",
        "tim"
      ],
      [
        "ec",
        "ur"
      ],
      [
        "Ġa",
        "c"
      ],
      [
        "Ġf",
        "or"
      ],
      [
        "c",
        "al"
      ],
      [
        "ĠC",
        "ertifi"
      ],
      [
        "ĠF",
        "inan"
      ],
      [
        "d",
        "ing"
      ],
      [
        "ĠManag",
        "ement"
      ],
      [
        "p",
        "h"
      ],
      [
        "ĠD",
        "evelo"
      ],
      [
        "ic",
        "al"
      ],
      [
        "ci",
        "al"
      ],
      [
        "r",
        "an"
      ],
      [
        "Ġimp",
        "ro"
      ],
      [
        "ĠP",
        "h"
      ],
      [
        "el",
        "ines"
      ],
      [
        "r",
        "u"
      ],
      [
        "Ġr",
        "es"
      ],
      [
        "d",
        "ated"
      ],
      [
        "Ġ",
        "up"
      ],
      [
        "Ġup",
        "dated"
      ],
      [
        "%",
        ".\\"
      ],
      [
        "Ġ",
        "6"
      ],
      [
        "Ġc",
        "h"
      ],
      [
        "Ġt",
        "eam"
      ],
      [
        "Ġs",
        "p"
      ],
      [
        "P",
        "I"
      ],
      [
        "Ġs",
        "h"
      ],
      [
        "le",
        "ment"
      ],
      [
        "Ġimp",
        "lement"
      ],
      [
        "l",
        "ay"
      ],
      [
        "Ġd",
        "e"
      ],
      [
        "q",
        "u"
      ],
      [
        "c",
        "y"
      ],
      [
        "Ġ",
        "un"
      ],
      [
        "tion",
        "s"
      ],
      [
        "Ġm",
        "y"
      ],
      [
        "s",
        "e"
      ],
      [
        "w",
        "are"
      ],
      [
        "ĠS",
        "oft"
      ],
      [
        "ĠSoft",
        "ware"
      ],
      [
        "Ġs",
        "u"
      ],
      [
        "lay",
        "ing"
      ],
      [
        "ad",
        "ing"
      ],
      [
        "Ġd",
        "evelo"
      ],
      [
        "ĠAnal",
        "y"
      ],
      [
        "arket",
        "ing"
      ],
      [
        "Ġc",
        "ont"
      ],
      [
        "Ġs",
        "a"
      ],
      [
        "ĠE",
        "x"
      ],
      [
        "o",
        "ut"
      ],
      [
        "t",
        "e"
      ],
      [
        "u",
        "b"
      ],
      [
        "t",
        "er"
      ],
      [
        "om",
        "er"
      ],
      [
        "ust",
        "omer"
      ],
      [
        "form",
        "ation"
      ],
      [
        "ĠA",
        "PI"
      ],
      [
        "Ġ",
        "$"
      ],
      [
        "rchit",
        "ect"
      ],
      [
        "8",
        "4"
      ],
      [
        "Ġde",
        "p"
      ],
      [
        "Ġc",
        "omp"
      ],
      [
        "c",
        "t"
      ],
      [
        "fi",
        "c"
      ],
      [
        "in",
        "h"
      ],
      [
        "h",
        "ead"
      ],
      [
        "t",
        "h"
      ],
      [
        "el",
        "iver"
      ],
      [
        "Ġs",
        "er"
      ],
      [
        "Ġd",
        "eliver"
      ],
      [
        "Q",
        "L"
      ],
      [
        "v",
        "ic"
      ],
      [
        "vic",
        "es"
      ],
      [
        "l",
        "ic"
      ],
      [
        "o",
        "ur"
      ],
      [
        "Ġ",
        "lo"
      ],
      [
        "or",
        "k"
      ],
      [
        "v",
        "en"
      ],
      [
        "Ġimplement",
        "ed"
      ],
      [
        "at",
        "a"
      ],
      [
        "Ġin",
        "c"
      ],
      [
        "Ġco",
        "st"
      ],
      [
        "ent",
        "or"
      ],
      [
        "ĠAnal",
        "yst"
      ],
      [
        "ud",
        "get"
      ],
      [
        "ĠD",
        "ata"
      ],
      [
        "u",
        "al"
      ],
      [
        "il",
        "e"
      ],
      [
        "on",
        "g"
      ],
      [
        "ĠS",
        "u"
      ],
      [
        "cc",
        "oun"
      ],
      [
        "i",
        "z"
      ],
      [
        "l",
        "l"
      ],
      [
        "cc",
        "ess"
      ],
      [
        "r",
        "ate"
      ],
      [
        "rate",
        "g"
      ],
      [
        "ĠPro",
        "fessional"
      ],
      [
        "Ġn",
        "ew"
      ],
      [
        "ĠDevelo",
        "per"
      ],
      [
        "g",
        "le"
      ],
      [
        "oo",
        "gle"
      ],
      [
        "u",
        "m"
      ],
      [
        "ra",
        "ph"
      ],
      [
        "p",
        "a"
      ],
      [
        "ch",
        "ing"
      ],
      [
        "ĠIn",
        "formation"
      ],
      [
        "Ġr",
        "ec"
      ],
      [
        "i",
        "p"
      ],
      [
        "Ġcomp",
        "l"
      ],
      [
        "or",
        "t"
      ],
      [
        "f",
        "fic"
      ],
      [
        "ab",
        "le"
      ],
      [
        "Ġimpro",
        "ving"
      ],
      [
        "c",
        "tion"
      ],
      [
        "Ġdevelo",
        "p"
      ],
      [
        "a",
        "v"
      ],
      [
        "Ġth",
        "at"
      ],
      [
        "ĠC",
        "ont"
      ],
      [
        "ĠR",
        "es"
      ],
      [
        "o",
        "ti"
      ],
      [
        "re",
        "w"
      ],
      [
        "ig",
        "h"
      ],
      [
        "a",
        "tive"
      ],
      [
        "Ġ",
        "j"
      ],
      [
        "Ġ8",
        "5"
      ],
      [
        "o",
        "p"
      ],
      [
        "Ġ",
        "e"
      ],
      [
        "ĠM",
        "inh"
      ],
      [
        "ĠCertifi",
        "ed"
      ],
      [
        "Ġo",
        "per"
      ],
      [
        "e",
        "g"
      ],
      [
        "r",
        "y"
      ],
      [
        "ĠH",
        "o"
      ],
      [
        "Ġen",
        "gineer"
      ],
      [
        "ver",
        "ag"
      ],
      [
        "Ġre",
        "ading"
      ],
      [
        "ĠC",
        "omp"
      ],
      [
        "ers",
        "hi"
      ],
      [
        "ershi",
        "p"
      ],
      [
        "at",
        "ing"
      ],
      [
        "t",
        "o"
      ],
      [
        "m",
        "a"
      ],
      [
        "%",
        ".\","
      ],
      [
        "Ġ4",
        "5"
      ],
      [
        "ĠS",
        "p"
      ],
      [
        "Ġ1",
        "5"
      ],
      [
        "Ġun",
        "iversity"
      ],
      [
        "Ġsa",
        "ving"
      ],
      [
        "Ġinc",
        "reasing"
      ],
      [
        "es",
        "t"
      ],
      [
        "P",
        "T"
      ],
      [
        "Ġm",
        "us"
      ],
      [
        "ĠF",
        "PT"
      ],
      [
        "il",
        "ity"
      ],
      [
        "o",
        "w"
      ],
      [
        "ic",
        "ros"
      ],
      [
        "ĠC",
        "ity"
      ],
      [
        "ĠC",
        "hi"
      ],
      [
        "ĠV",
        "N"
      ],
      [
        "Ġex",
        "p"
      ],
      [
        "Ġ",
        "ent"
      ],
      [
        "ar",
        "d"
      ],
      [
        "en",
        "er"
      ],
      [
        "ut",
        "er"
      ],
      [
        "ĠComp",
        "uter"
      ],
      [
        "u",
        "e"
      ],
      [
        "ĠFinan",
        "ce"
      ],
      [
        "Ġ6",
        "0"
      ],
      [
        "lo",
        "ud"
      ],
      [
        "ĠDesign",
        "ed"
      ],
      [
        "ee",
        "king"
      ],
      [
        "u",
        "g"
      ],
      [
        "g",
        "ing"
      ],
      [
        "ĠA",
        "ut"
      ],
      [
        "Ġ3",
        "0"
      ],
      [
        "at",
        "ure"
      ],
      [
        "ĠC",
        "loud"
      ],
      [
        "ear",
        "head"
      ],
      [
        "en",
        "s"
      ],
      [
        "ĠP",
        "y"
      ],
      [
        "an",
        "c"
      ],
      [
        "un",
        "ction"
      ],
      [
        "ros",
        "s"
      ],
      [
        "unction",
        "al"
      ],
      [
        "Ġp",
        "ip"
      ],
      [
        "ut",
        "e"
      ],
      [
        "Ġpip",
        "elines"
      ],
      [
        "it",
        "ing"
      ],
      [
        "Ġc",
        "am"
      ],
      [
        "pa",
        "ign"
      ],
      [
        "Ġcam",
        "paign"
      ],
      [
        "o",
        "us"
      ],
      [
        "ol",
        "u"
      ],
      [
        "el",
        "e"
      ],
      [
        "ĠS",
        "ales"
      ],
      [
        "ystem",
        "s"
      ],
      [
        "iz",
        "ing"
      ],
      [
        "o",
        "i"
      ],
      [
        "an",
        "oi"
      ],
      [
        "Ġo",
        "p"
      ],
      [
        "ĠA",
        "ccoun"
      ],
      [
        "ĠM",
        "arketing"
      ],
      [
        "ĠH",
        "anoi"
      ],
      [
        "ĠG",
        "oogle"
      ],
      [
        "Ġat",
        "t"
      ],
      [
        "ien",
        "t"
      ],
      [
        "N",
        "ot"
      ],
      [
        "b",
        "o"
      ],
      [
        "or",
        "d"
      ],
      [
        "b",
        "ers"
      ],
      [
        "k",
        "er"
      ],
      [
        "Ġ",
        "Q"
      ],
      [
        "eg",
        "oti"
      ],
      [
        "l",
        "i"
      ],
      [
        "Ġapp",
        "li"
      ],
      [
        "a",
        "por"
      ],
      [
        "ing",
        "apor"
      ],
      [
        "ĠS",
        "ingapor"
      ],
      [
        "ĠSingapor",
        "e"
      ],
      [
        "i",
        "v"
      ],
      [
        "Ġ2",
        "5"
      ],
      [
        "ur",
        "al"
      ],
      [
        "a",
        "h"
      ],
      [
        "c",
        "ess"
      ],
      [
        "w",
        "riting"
      ],
      [
        "Ġ1",
        "2"
      ],
      [
        "ĠN",
        "egoti"
      ],
      [
        "Ġsu",
        "ccess"
      ],
      [
        "ĠA",
        "rchitect"
      ],
      [
        "lo",
        "y"
      ],
      [
        "Ġm",
        "arket"
      ],
      [
        "our",
        "ce"
      ],
      [
        "Ġe",
        "ffic"
      ],
      [
        "Ġdevelop",
        "ment"
      ],
      [
        "g",
        "raph"
      ],
      [
        "verag",
        "e"
      ],
      [
        "graph",
        "y"
      ],
      [
        "ĠN",
        "o"
      ],
      [
        "M",
        "aster"
      ],
      [
        "d",
        "e"
      ],
      [
        "un",
        "te"
      ],
      [
        "ol",
        "unte"
      ],
      [
        "Ġlo",
        "cal"
      ],
      [
        "y",
        "p"
      ],
      [
        "A",
        "T"
      ],
      [
        "ec",
        "reasing"
      ],
      [
        "Ġd",
        "ecreasing"
      ],
      [
        "I",
        "T"
      ],
      [
        "a",
        "ti"
      ],
      [
        "ar",
        "y"
      ],
      [
        "ien",
        "cy"
      ],
      [
        "Ġv",
        "is"
      ],
      [
        "ĠT",
        "h"
      ],
      [
        "ot",
        "o"
      ],
      [
        "Ġsp",
        "e"
      ],
      [
        "P",
        "laying"
      ],
      [
        "Ġs",
        "ecur"
      ],
      [
        "Ġle",
        "ad"
      ],
      [
        "Ġoper",
        "ational"
      ],
      [
        "C",
        "D"
      ],
      [
        "y",
        "c"
      ],
      [
        "Ġc",
        "yc"
      ],
      [
        "Ġ1",
        "0"
      ],
      [
        "Ġc",
        "ra"
      ],
      [
        "Ġf",
        "e"
      ],
      [
        "ĠC",
        "I"
      ],
      [
        "ĠA",
        "s"
      ],
      [
        "Ġm",
        "ont"
      ],
      [
        "un",
        "i"
      ],
      [
        "Ġmont",
        "h"
      ],
      [
        "f",
        "ac"
      ],
      [
        "ĠEx",
        "c"
      ],
      [
        "r",
        "ing"
      ],
      [
        "ĠM",
        "aster"
      ],
      [
        "du",
        "ct"
      ],
      [
        "o",
        "k"
      ],
      [
        "u",
        "y"
      ],
      [
        "lo",
        "ok"
      ],
      [
        "ĠG",
        "it"
      ],
      [
        "out",
        "look"
      ],
      [
        "Ġg",
        "ener"
      ],
      [
        "ĠCont",
        "ent"
      ],
      [
        "ad",
        "em"
      ],
      [
        "ĠFinan",
        "cial"
      ],
      [
        "ac",
        "k"
      ],
      [
        "ear",
        "ning"
      ],
      [
        "S",
        "T"
      ],
      [
        "ĠR",
        "e"
      ],
      [
        "Ġg",
        "u"
      ],
      [
        "ab",
        "ility"
      ],
      [
        "C",
        "S"
      ],
      [
        "ed",
        "g"
      ],
      [
        "t",
        "hon"
      ],
      [
        "oo",
        "k"
      ],
      [
        "ĠS",
        "QL"
      ],
      [
        "u",
        "ment"
      ],
      [
        "oc",
        "ument"
      ],
      [
        "er",
        "ing"
      ],
      [
        "f",
        "ting"
      ],
      [
        "ĠN",
        "ot"
      ],
      [
        "pp",
        "ly"
      ],
      [
        "Ġtim",
        "es"
      ],
      [
        "Ġ",
        "9"
      ],
      [
        "ĠH",
        "R"
      ],
      [
        "ĠDesign",
        "er"
      ],
      [
        "d",
        "er"
      ],
      [
        "Ġ",
        "7"
      ],
      [
        "ec",
        "ut"
      ],
      [
        "Ġs",
        "ales"
      ],
      [
        "ecut",
        "ed"
      ],
      [
        "r",
        "ont"
      ],
      [
        "an",
        "ce"
      ],
      [
        "Ġt",
        "ran"
      ],
      [
        "Ġtran",
        "s"
      ],
      [
        "or",
        "p"
      ],
      [
        "ĠL",
        "aw"
      ],
      [
        "y",
        "ah"
      ],
      [
        "en",
        "cy"
      ],
      [
        "et",
        "ed"
      ],
      [
        "ĠD",
        "ir"
      ],
      [
        "Ġy",
        "et"
      ],
      [
        "ect",
        "ed"
      ],
      [
        "Ġcompl",
        "eted"
      ],
      [
        "yah",
        "oo"
      ],
      [
        "ĠDir",
        "ected"
      ],
      [
        "re",
        "p"
      ],
      [
        "Ġco",
        "de"
      ],
      [
        "Ġac",
        "adem"
      ],
      [
        "Ġacadem",
        "ic"
      ],
      [
        "Ġb",
        "udget"
      ],
      [
        "art",
        "ment"
      ],
      [
        "Ġdep",
        "artment"
      ],
      [
        "ĠAccoun",
        "t"
      ],
      [
        "Ġs",
        "eeking"
      ],
      [
        "log",
        "ging"
      ],
      [
        "Ġent",
        "ry"
      ],
      [
        "ĠPy",
        "thon"
      ],
      [
        "ĠC",
        "on"
      ],
      [
        "ĠC",
        "ustomer"
      ],
      [
        "f",
        "ra"
      ],
      [
        "Ġc",
        "ustomer"
      ],
      [
        "Ġa",
        "b"
      ],
      [
        "g",
        "mail"
      ],
      [
        "ar",
        "ning"
      ],
      [
        "ul",
        "t"
      ],
      [
        "Ġle",
        "arning"
      ],
      [
        "c",
        "orp"
      ],
      [
        "m",
        "ac"
      ],
      [
        "v",
        "entor"
      ],
      [
        "ar",
        "mac"
      ],
      [
        "tic",
        "s"
      ],
      [
        "ventor",
        "y"
      ],
      [
        "P",
        "ro"
      ],
      [
        "ĠP",
        "laying"
      ],
      [
        "ang",
        "e"
      ],
      [
        "Ġcampaign",
        "s"
      ],
      [
        "Ġappli",
        "cations"
      ],
      [
        "g",
        "ile"
      ],
      [
        "Ġ5",
        "0"
      ],
      [
        "Ġprojec",
        "t"
      ],
      [
        "er",
        "vices"
      ],
      [
        "Ġs",
        "cal"
      ],
      [
        "ĠT",
        "es"
      ],
      [
        "ĠSp",
        "earhead"
      ],
      [
        "icros",
        "ervices"
      ],
      [
        "ĠVN",
        "U"
      ],
      [
        "ĠSpearhead",
        "ed"
      ],
      [
        "ĠW",
        "riting"
      ],
      [
        "u",
        "il"
      ],
      [
        "or",
        "por"
      ],
      [
        "lo",
        "w"
      ],
      [
        "Ġb",
        "uil"
      ],
      [
        "ass",
        "ion"
      ],
      [
        "tim",
        "izing"
      ],
      [
        "ĠPh",
        "armac"
      ],
      [
        "Ġop",
        "timizing"
      ],
      [
        "y",
        "nam"
      ],
      [
        "Ġd",
        "ri"
      ],
      [
        "ecur",
        "ity"
      ],
      [
        "ynam",
        "ic"
      ],
      [
        "ĠP",
        "l"
      ],
      [
        "ĠIn",
        "ventory"
      ],
      [
        "Ġatt",
        "end"
      ],
      [
        "e",
        "ve"
      ],
      [
        "i",
        "eve"
      ],
      [
        "Ġa",
        "ch"
      ],
      [
        "ĠC",
        "h"
      ],
      [
        "ront",
        "end"
      ],
      [
        "Ġach",
        "ieve"
      ],
      [
        "on",
        "es"
      ],
      [
        "Ġs",
        "ch"
      ],
      [
        "inan",
        "cial"
      ],
      [
        "Ġdep",
        "loy"
      ],
      [
        "ati",
        "ent"
      ],
      [
        "M",
        "IT"
      ],
      [
        "l",
        "is"
      ],
      [
        "s",
        "ti"
      ],
      [
        "t",
        "ute"
      ],
      [
        "ĠR",
        "MIT"
      ],
      [
        "ĠIn",
        "sti"
      ],
      [
        "lis",
        "h"
      ],
      [
        "ĠInsti",
        "tute"
      ],
      [
        "ĠC",
        "orpor"
      ],
      [
        "Ġtim",
        "e"
      ],
      [
        "ĠN",
        "ational"
      ],
      [
        "ĠAs",
        "s"
      ],
      [
        "f",
        "unctional"
      ],
      [
        "y",
        "ear"
      ],
      [
        "ation",
        "s"
      ],
      [
        "Ġc",
        "ross"
      ],
      [
        "Ġteam",
        "s"
      ],
      [
        "s",
        "is"
      ],
      [
        "el",
        "t"
      ],
      [
        "ain",
        "t"
      ],
      [
        "ĠAnaly",
        "sis"
      ],
      [
        "Ġ",
        "qu"
      ],
      [
        "Ġm",
        "em"
      ],
      [
        "Ġmem",
        "bers"
      ],
      [
        "r",
        "ated"
      ],
      [
        "Ġth",
        "e"
      ],
      [
        "ĠW",
        "riter"
      ],
      [
        "Ġser",
        "vices"
      ],
      [
        "E",
        "ST"
      ],
      [
        "ĠAPI",
        "s"
      ],
      [
        "5",
        "0"
      ],
      [
        "ub",
        "lic"
      ],
      [
        "k",
        "ele"
      ],
      [
        "er",
        "kele"
      ],
      [
        "ĠP",
        "atient"
      ],
      [
        "ĠB",
        "erkele"
      ],
      [
        "ĠU",
        "C"
      ],
      [
        "ĠF",
        "or"
      ],
      [
        "ĠBerkele",
        "y"
      ],
      [
        "n",
        "bo"
      ],
      [
        "ar",
        "ding"
      ],
      [
        "oun",
        "d"
      ],
      [
        "nbo",
        "arding"
      ],
      [
        "et",
        "ts"
      ],
      [
        "ĠM",
        "ass"
      ],
      [
        "us",
        "etts"
      ],
      [
        "ach",
        "usetts"
      ],
      [
        "ĠMass",
        "achusetts"
      ],
      [
        "an",
        "for"
      ],
      [
        "ĠSt",
        "anfor"
      ],
      [
        "ĠStanfor",
        "d"
      ],
      [
        "ĠR",
        "EST"
      ],
      [
        "Ġcost",
        "s"
      ],
      [
        "Ġmonth",
        "ly"
      ],
      [
        "ack",
        "end"
      ],
      [
        "ob",
        "e"
      ],
      [
        "Ġeffic",
        "iency"
      ],
      [
        "om",
        "ated"
      ],
      [
        "ĠTechn",
        "ical"
      ],
      [
        "I",
        "Y"
      ],
      [
        "en",
        "ing"
      ],
      [
        "ro",
        "ug"
      ],
      [
        "Ġan",
        "im"
      ],
      [
        "ĠD",
        "IY"
      ],
      [
        "ĠT",
        "rac"
      ],
      [
        "Ġg",
        "ard"
      ],
      [
        "ĠO",
        "nboarding"
      ],
      [
        "Ġsh",
        "elt"
      ],
      [
        "olunte",
        "ering"
      ],
      [
        "Ġcra",
        "fting"
      ],
      [
        "roug",
        "h"
      ],
      [
        "Ġanim",
        "al"
      ],
      [
        "Ġgard",
        "ening"
      ],
      [
        "Ġshelt",
        "ers"
      ],
      [
        "b",
        "all"
      ],
      [
        "ar",
        "ies"
      ],
      [
        "at",
        "ching"
      ],
      [
        "Ġs",
        "por"
      ],
      [
        "am",
        "ing"
      ],
      [
        "Ġw",
        "atching"
      ],
      [
        "Ġb",
        "as"
      ],
      [
        "Ġd",
        "ocument"
      ],
      [
        "Ġg",
        "aming"
      ],
      [
        "ket",
        "ball"
      ],
      [
        "Ġdeliver",
        "y"
      ],
      [
        "Ġspor",
        "ts"
      ],
      [
        "Ġbas",
        "ketball"
      ],
      [
        "Ġdocument",
        "aries"
      ],
      [
        "f",
        "ul"
      ],
      [
        "ĠS",
        "E"
      ],
      [
        "Ġ1",
        "00"
      ],
      [
        "Ġsuccess",
        "ful"
      ],
      [
        "Ġsuccessful",
        "ly"
      ],
      [
        "h",
        "anc"
      ],
      [
        "el",
        "ing"
      ],
      [
        "ĠI",
        "ll"
      ],
      [
        "Ġen",
        "hanc"
      ],
      [
        "Ġj",
        "uni"
      ],
      [
        "ĠIll",
        "ust"
      ],
      [
        "Ġjuni",
        "or"
      ],
      [
        "a",
        "king"
      ],
      [
        "or",
        "y"
      ],
      [
        "or",
        "ies"
      ],
      [
        "Ġp",
        "ublic"
      ],
      [
        "ist",
        "ory"
      ],
      [
        "Ġh",
        "istory"
      ],
      [
        "ĠL",
        "ed"
      ],
      [
        "Ġst",
        "ories"
      ],
      [
        "Ġsh",
        "ort"
      ],
      [
        "Ġspe",
        "aking"
      ],
      [
        "e",
        "um"
      ],
      [
        "i",
        "al"
      ],
      [
        "o",
        "v"
      ],
      [
        "r",
        "t"
      ],
      [
        "Ġa",
        "rt"
      ],
      [
        "ec",
        "ial"
      ],
      [
        "an",
        "ual"
      ],
      [
        "Ġp",
        "ain"
      ],
      [
        "em",
        "por"
      ],
      [
        "ket",
        "ching"
      ],
      [
        "Ġcont",
        "empor"
      ],
      [
        "Ġmus",
        "eum"
      ],
      [
        "Ġvis",
        "iting"
      ],
      [
        "Ġpain",
        "ting"
      ],
      [
        "Ġcontempor",
        "ary"
      ],
      [
        "Ġmuseum",
        "s"
      ],
      [
        "Ġ",
        "user"
      ],
      [
        "Ġre",
        "qu"
      ],
      [
        "h",
        "op"
      ],
      [
        "ĠTes",
        "ting"
      ],
      [
        "ig",
        "ma"
      ],
      [
        "is",
        "c"
      ],
      [
        "ru",
        "ct"
      ],
      [
        "z",
        "ed"
      ],
      [
        "Ġf",
        "inancial"
      ],
      [
        "Ġover",
        "all"
      ],
      [
        "end",
        "or"
      ],
      [
        "Ġapp",
        "ly"
      ],
      [
        "cess",
        "es"
      ],
      [
        "i",
        "king"
      ],
      [
        "l",
        "or"
      ],
      [
        "at",
        "form"
      ],
      [
        "Ġh",
        "iking"
      ],
      [
        "ĠL",
        "earning"
      ],
      [
        "Ġn",
        "ature"
      ],
      [
        "Ġexp",
        "lor"
      ],
      [
        "oto",
        "graphy"
      ],
      [
        "Ġexplor",
        "ing"
      ],
      [
        ")",
        "<|"
      ],
      [
        "l",
        "lo"
      ],
      [
        "ĠQ",
        "A"
      ],
      [
        "llo",
        "cation"
      ],
      [
        "i",
        "k"
      ],
      [
        "it",
        "al"
      ],
      [
        "ig",
        "ital"
      ],
      [
        "i",
        "ra"
      ],
      [
        "o",
        "d"
      ],
      [
        "Ġm",
        "arketing"
      ],
      [
        "ĠN",
        "ur"
      ],
      [
        "olu",
        "tions"
      ],
      [
        "i",
        "re"
      ],
      [
        "Ġin",
        "fra"
      ],
      [
        "jec",
        "t"
      ],
      [
        "ĠSt",
        "rateg"
      ],
      [
        "ĠStrateg",
        "y"
      ],
      [
        "oc",
        "ker"
      ],
      [
        "ĠAnaly",
        "tics"
      ],
      [
        "Ġengineer",
        "s"
      ],
      [
        "Ġ5",
        "00"
      ],
      [
        "Ġa",
        "rchitect"
      ],
      [
        "Ġh",
        "igh"
      ],
      [
        "all",
        "en"
      ],
      [
        "Ġch",
        "allen"
      ],
      [
        "Ġs",
        "ystems"
      ],
      [
        "t",
        "ot"
      ],
      [
        "as",
        "e"
      ],
      [
        "ĠPro",
        "duct"
      ],
      [
        "Ġun",
        "der"
      ],
      [
        "tot",
        "yp"
      ],
      [
        "f",
        "f"
      ],
      [
        "n",
        "ational"
      ],
      [
        "u",
        "is"
      ],
      [
        "Ġ",
        "exper"
      ],
      [
        "ti",
        "se"
      ],
      [
        "Ġc",
        "uis"
      ],
      [
        "Ġin",
        "ter"
      ],
      [
        "Ġm",
        "anag"
      ],
      [
        "Ġb",
        "rew"
      ],
      [
        "Ġb",
        "logging"
      ],
      [
        "Ġf",
        "oo"
      ],
      [
        "oo",
        "king"
      ],
      [
        "Ġco",
        "ff"
      ],
      [
        "Ġengineer",
        "ing"
      ],
      [
        "Ġexper",
        "tise"
      ],
      [
        "Ġcuis",
        "ines"
      ],
      [
        "Ġinter",
        "national"
      ],
      [
        "Ġbrew",
        "ing"
      ],
      [
        "Ġfoo",
        "d"
      ],
      [
        "Ġcoff",
        "ee"
      ],
      [
        "ro",
        "w"
      ],
      [
        "op",
        "y"
      ],
      [
        "ĠDevelo",
        "p"
      ],
      [
        "Ġ",
        "K"
      ],
      [
        "per",
        "form"
      ],
      [
        "ĠCon",
        "f"
      ],
      [
        "l",
        "ing"
      ],
      [
        "n",
        "ess"
      ],
      [
        "n",
        "ov"
      ],
      [
        "t",
        "el"
      ],
      [
        "in",
        "ing"
      ],
      [
        "en",
        "ti"
      ],
      [
        "ar",
        "at"
      ],
      [
        "it",
        "ness"
      ],
      [
        "Ġt",
        "ra"
      ],
      [
        "Ġm",
        "arat"
      ],
      [
        "un",
        "ning"
      ],
      [
        "Ġf",
        "itness"
      ],
      [
        "ul",
        "ting"
      ],
      [
        "hon",
        "s"
      ],
      [
        "Ġres",
        "ulting"
      ],
      [
        "Ġcyc",
        "ling"
      ],
      [
        "ĠExc",
        "el"
      ],
      [
        "nov",
        "ative"
      ],
      [
        "Ġtra",
        "ining"
      ],
      [
        "Ġmarat",
        "hons"
      ],
      [
        "v",
        "ed"
      ],
      [
        "ĠJ",
        "ira"
      ],
      [
        "ol",
        "ving"
      ],
      [
        "ĠAd",
        "obe"
      ],
      [
        "Ġlead",
        "ership"
      ],
      [
        "o",
        "hn"
      ],
      [
        "Ġt",
        "rac"
      ],
      [
        "ear",
        "ch"
      ],
      [
        "ĠPro",
        "ven"
      ],
      [
        "Ġrec",
        "ord"
      ],
      [
        "ĠRes",
        "earch"
      ],
      [
        "Ġtrac",
        "k"
      ],
      [
        "in",
        "u"
      ],
      [
        "H",
        "ub"
      ],
      [
        "O",
        "p"
      ],
      [
        "S",
        "c"
      ],
      [
        "or",
        "ient"
      ],
      [
        "ĠL",
        "ead"
      ],
      [
        "Op",
        "s"
      ],
      [
        "orient",
        "ed"
      ],
      [
        "l",
        "ect"
      ],
      [
        "Ġg",
        "ra"
      ],
      [
        "ĠNegoti",
        "ation"
      ],
      [
        "g",
        "ac"
      ],
      [
        "Ġle",
        "gac"
      ],
      [
        "edg",
        "e"
      ],
      [
        "Ġlegac",
        "y"
      ],
      [
        "H",
        "igh"
      ],
      [
        "j",
        "s"
      ],
      [
        "u",
        "ag"
      ],
      [
        "it",
        "e"
      ],
      [
        "Ġs",
        "olutions"
      ],
      [
        "Ġc",
        "ult"
      ],
      [
        "ra",
        "vel"
      ],
      [
        "ch",
        "ange"
      ],
      [
        "ĠD",
        "ocker"
      ],
      [
        "ĠB",
        "udget"
      ],
      [
        "ang",
        "uag"
      ],
      [
        "Ġex",
        "change"
      ],
      [
        "Ġl",
        "anguag"
      ],
      [
        "Ġcult",
        "ural"
      ],
      [
        "ravel",
        "ing"
      ],
      [
        "Ġlanguag",
        "es"
      ],
      [
        "o",
        "vel"
      ],
      [
        "ed",
        "ic"
      ],
      [
        "Ġs",
        "id"
      ],
      [
        "Ġs",
        "ci"
      ],
      [
        "Ġ201",
        "5"
      ],
      [
        "Ġco",
        "ding"
      ],
      [
        "Ġn",
        "ovel"
      ],
      [
        "Ġch",
        "ess"
      ],
      [
        "Ġsid",
        "e"
      ],
      [
        "Ġnovel",
        "s"
      ],
      [
        "Ġ",
        "k"
      ],
      [
        "Ġ",
        "tic"
      ],
      [
        "Ġb",
        "usiness"
      ],
      [
        "Ġd",
        "esign"
      ],
      [
        "ket",
        "s"
      ],
      [
        "Ġtic",
        "kets"
      ],
      [
        "ach",
        "ine"
      ],
      [
        "1",
        "0"
      ],
      [
        "i",
        "tion"
      ],
      [
        "l",
        "ab"
      ],
      [
        "en",
        "tion"
      ],
      [
        "ĠC",
        "ol"
      ],
      [
        "lab",
        "or"
      ],
      [
        "ĠCol",
        "labor"
      ],
      [
        "Ġa",
        "rchit"
      ],
      [
        "ec",
        "ting"
      ],
      [
        "ĠP",
        "assion"
      ],
      [
        "Ġle",
        "verage"
      ],
      [
        "ork",
        "s"
      ],
      [
        "Ġab",
        "out"
      ],
      [
        "Ġarchit",
        "ecting"
      ],
      [
        "ĠPassion",
        "ate"
      ],
      [
        "o",
        "ci"
      ],
      [
        "ĠM",
        "achine"
      ],
      [
        "i",
        "ch"
      ],
      [
        "ĠM",
        "aint"
      ],
      [
        "opy",
        "writing"
      ],
      [
        "u",
        "ong"
      ],
      [
        "per",
        "ations"
      ],
      [
        "W",
        "S"
      ],
      [
        "ol",
        "id"
      ],
      [
        "ac",
        "tions"
      ],
      [
        "ĠP",
        "rep"
      ],
      [
        "Ġscal",
        "able"
      ],
      [
        "ĠPrep",
        "ar"
      ],
      [
        "ĠA",
        "gile"
      ],
      [
        "as",
        "h"
      ],
      [
        "echn",
        "ical"
      ],
      [
        "Ġbuil",
        "d"
      ],
      [
        "ri",
        "p"
      ],
      [
        "Ġdri",
        "ve"
      ],
      [
        "m",
        "ul"
      ],
      [
        "o",
        "ver"
      ],
      [
        "s",
        "aw"
      ],
      [
        "s",
        "fac"
      ],
      [
        "ti",
        "sfac"
      ],
      [
        "Ġa",
        "ll"
      ],
      [
        "Ġa",
        "llocation"
      ],
      [
        "il",
        "est"
      ],
      [
        "ver",
        "saw"
      ],
      [
        "Ġm",
        "ilest"
      ],
      [
        "edu",
        "le"
      ],
      [
        "Ġg",
        "rew"
      ],
      [
        "Ġreduc",
        "tion"
      ],
      [
        "Ġ202",
        "1"
      ],
      [
        "Ġex",
        "ecuted"
      ],
      [
        "ĠO",
        "versaw"
      ],
      [
        "Ġst",
        "rateg"
      ],
      [
        "Ġres",
        "ource"
      ],
      [
        "Ġsh",
        "are"
      ],
      [
        "Ġsa",
        "tisfac"
      ],
      [
        "Ġdeliver",
        "ing"
      ],
      [
        "Ġcompl",
        "ex"
      ],
      [
        "Ġexp",
        "ens"
      ],
      [
        "Ġsecur",
        "ed"
      ],
      [
        "CS",
        "AT"
      ],
      [
        "Ġsch",
        "edule"
      ],
      [
        "ĠFor",
        "mul"
      ],
      [
        "Ġmilest",
        "ones"
      ],
      [
        "Ġstrateg",
        "ies"
      ],
      [
        "Ġsatisfac",
        "tion"
      ],
      [
        "Ġexpens",
        "es"
      ],
      [
        "ĠFormul",
        "ated"
      ],
      [
        "i",
        "ve"
      ],
      [
        "it",
        "ar"
      ],
      [
        "Ġs",
        "ong"
      ],
      [
        "Ġt",
        "echnical"
      ],
      [
        "ig",
        "s"
      ],
      [
        "Ġg",
        "igs"
      ],
      [
        "ud",
        "ent"
      ],
      [
        "Ġl",
        "ive"
      ],
      [
        "Ġac",
        "ous"
      ],
      [
        "Ġmus",
        "ic"
      ],
      [
        "Ġgu",
        "itar"
      ],
      [
        "Ġattend",
        "ing"
      ],
      [
        "Ġsong",
        "writing"
      ],
      [
        "Ġacous",
        "tic"
      ],
      [
        ")",
        ","
      ],
      [
        "ĠU",
        "I"
      ],
      [
        "ĠO",
        "perations"
      ],
      [
        "M",
        "L"
      ],
      [
        "ĠC",
        "opywriting"
      ],
      [
        "ow",
        "n"
      ],
      [
        "ĠSE",
        "O"
      ],
      [
        "ed",
        "i"
      ],
      [
        "ĠA",
        "c"
      ],
      [
        "em",
        "on"
      ],
      [
        "ĠPro",
        "ject"
      ],
      [
        "per",
        "t"
      ],
      [
        "ĠS",
        "ecurity"
      ],
      [
        "Ġ201",
        "4"
      ],
      [
        "ĠGit",
        "Hub"
      ],
      [
        "A",
        "P"
      ],
      [
        "m",
        "art"
      ],
      [
        "an",
        "ning"
      ],
      [
        "ĠC",
        "S"
      ],
      [
        "ĠA",
        "ds"
      ],
      [
        "ĠPl",
        "anning"
      ],
      [
        "A",
        "B"
      ],
      [
        "L",
        "AB"
      ],
      [
        "ĠC",
        "iv"
      ],
      [
        "Ġ201",
        "6"
      ],
      [
        "tic",
        "al"
      ],
      [
        "AT",
        "LAB"
      ],
      [
        "ĠCiv",
        "il"
      ],
      [
        "M",
        "O"
      ],
      [
        "O",
        "MO"
      ],
      [
        "et",
        "a"
      ],
      [
        "ĠM",
        "OMO"
      ],
      [
        "Ġ201",
        "3"
      ],
      [
        "p",
        "r"
      ],
      [
        "ĠS",
        "ystems"
      ],
      [
        "Ġ202",
        "3"
      ],
      [
        "ound",
        "ation"
      ],
      [
        "ment",
        "s"
      ],
      [
        "ire",
        "ments"
      ],
      [
        "f",
        "low"
      ],
      [
        "g",
        "ency"
      ],
      [
        "Ġa",
        "verage"
      ],
      [
        "Ġa",
        "gency"
      ],
      [
        "it",
        "ment"
      ],
      [
        "Ġw",
        "ork"
      ],
      [
        "Ġm",
        "anual"
      ],
      [
        "Ġpro",
        "cesses"
      ],
      [
        "Ġh",
        "ir"
      ],
      [
        "Ġv",
        "endor"
      ],
      [
        "Ġprofessional",
        "s"
      ],
      [
        "Ġreduc",
        "tions"
      ],
      [
        "hi",
        "re"
      ],
      [
        "rac",
        "ts"
      ],
      [
        "Ġover",
        "head"
      ],
      [
        "Ġtim",
        "elines"
      ],
      [
        "ru",
        "itment"
      ],
      [
        "Ġch",
        "ain"
      ],
      [
        "Ġsu",
        "pply"
      ],
      [
        "Ġcont",
        "racts"
      ],
      [
        "Ġrec",
        "ruitment"
      ],
      [
        "ĠNegoti",
        "ated"
      ],
      [
        "Ġsecur",
        "ing"
      ],
      [
        "Ġfe",
        "es"
      ],
      [
        "Ġenhanc",
        "ing"
      ],
      [
        "Ġwork",
        "flow"
      ],
      [
        "Ġhir",
        "ed"
      ],
      [
        "lic",
        "t"
      ],
      [
        "ĠRes",
        "olu"
      ],
      [
        "ĠResolu",
        "tion"
      ],
      [
        "Ġ",
        "em"
      ],
      [
        "Ġ202",
        "5"
      ],
      [
        "for",
        "ce"
      ],
      [
        "i",
        "am"
      ],
      [
        "Ġ",
        "du"
      ],
      [
        "ĠM",
        "icroservices"
      ],
      [
        "ĠM",
        "ATLAB"
      ],
      [
        "ill",
        "iam"
      ],
      [
        "Ġ201",
        "1"
      ],
      [
        "Ġ202",
        "2"
      ],
      [
        "illiam",
        "s"
      ],
      [
        "b",
        "er"
      ],
      [
        "s",
        "eling"
      ],
      [
        "ĠC",
        "oun"
      ],
      [
        "ess",
        "ment"
      ],
      [
        "fac",
        "t"
      ],
      [
        "ĠAss",
        "essment"
      ],
      [
        "ĠCoun",
        "seling"
      ],
      [
        "i",
        "fi"
      ],
      [
        "ĠL",
        "ic"
      ],
      [
        "Ġ202",
        "4"
      ],
      [
        "ur",
        "es"
      ],
      [
        "ĠIn",
        "ter"
      ],
      [
        "ĠSu",
        "pply"
      ],
      [
        "ĠCh",
        "ain"
      ],
      [
        "ĠAccount",
        "ant"
      ],
      [
        "d",
        "as"
      ],
      [
        "an",
        "das"
      ],
      [
        "ĠM",
        "eta"
      ],
      [
        "Ġ201",
        "2"
      ],
      [
        "ĠNur",
        "se"
      ],
      [
        "ĠConf",
        "lict"
      ],
      [
        "c",
        "ate"
      ],
      [
        "s",
        "er"
      ],
      [
        "ĠCertifi",
        "cate"
      ],
      [
        "av",
        "is"
      ],
      [
        "I",
        "n"
      ],
      [
        "m",
        "ing"
      ],
      [
        "er",
        "ra"
      ],
      [
        "ĠP",
        "andas"
      ],
      [
        "ĠL",
        "e"
      ],
      [
        "av",
        "a"
      ],
      [
        "erra",
        "form"
      ],
      [
        "E",
        "n"
      ],
      [
        "G",
        "raph"
      ],
      [
        "e",
        "v"
      ],
      [
        "f",
        "rontend"
      ],
      [
        "g",
        "rated"
      ],
      [
        "i",
        "ew"
      ],
      [
        "p",
        "art"
      ],
      [
        "v",
        "al"
      ],
      [
        "v",
        "ail"
      ],
      [
        "v",
        "iew"
      ],
      [
        "en",
        "se"
      ],
      [
        "Ġa",
        "vail"
      ],
      [
        "ro",
        "val"
      ],
      [
        "at",
        "ency"
      ],
      [
        "el",
        "oc"
      ],
      [
        "Ġs",
        "ystem"
      ],
      [
        "per",
        "s"
      ],
      [
        "ĠM",
        "entor"
      ],
      [
        "Ġin",
        "te"
      ],
      [
        "Ġp",
        "ull"
      ],
      [
        "ĠD",
        "ev"
      ],
      [
        "Ġb",
        "ackend"
      ],
      [
        "Ġth",
        "ir"
      ],
      [
        "Ġv",
        "eloc"
      ],
      [
        "id",
        "elines"
      ],
      [
        "Ġre",
        "view"
      ],
      [
        "Ġl",
        "atency"
      ],
      [
        "Ġapp",
        "roval"
      ],
      [
        "Ġac",
        "tive"
      ],
      [
        "Ġdevelo",
        "pers"
      ],
      [
        "Ġser",
        "ver"
      ],
      [
        "Ġser",
        "ving"
      ],
      [
        "ow",
        "er"
      ],
      [
        "Ġgu",
        "idelines"
      ],
      [
        "ĠCorpor",
        "ate"
      ],
      [
        "Ġuser",
        "s"
      ],
      [
        "Ġrequ",
        "est"
      ],
      [
        "ĠLic",
        "ense"
      ],
      [
        "Graph",
        "QL"
      ],
      [
        "part",
        "y"
      ],
      [
        "Ġavail",
        "ability"
      ],
      [
        "ĠMentor",
        "ed"
      ],
      [
        "Ġinte",
        "grated"
      ],
      [
        "ĠDev",
        "Ops"
      ],
      [
        "Ġthir",
        "d"
      ],
      [
        "Ġveloc",
        "ity"
      ],
      [
        "pp",
        "ort"
      ],
      [
        "ĠIllust",
        "ration"
      ],
      [
        "C",
        "ertifi"
      ],
      [
        "u",
        "i"
      ],
      [
        "ĠD",
        "a"
      ],
      [
        "ĠD",
        "igital"
      ],
      [
        "ĠU",
        "ser"
      ],
      [
        "ĠN",
        "ang"
      ],
      [
        "ru",
        "m"
      ],
      [
        "ĠSp",
        "ecial"
      ],
      [
        "Certifi",
        "ed"
      ],
      [
        "B",
        "ook"
      ],
      [
        "ro",
        "up"
      ],
      [
        "ĠT",
        "erraform"
      ],
      [
        "ĠG",
        "roup"
      ],
      [
        "ĠViet",
        "tel"
      ],
      [
        "ĠTrac",
        "king"
      ],
      [
        "r",
        "at"
      ],
      [
        "s",
        "on"
      ],
      [
        "ill",
        "er"
      ],
      [
        "ohn",
        "son"
      ],
      [
        "rat",
        "or"
      ],
      [
        "C",
        "A"
      ],
      [
        "ĠA",
        "WS"
      ],
      [
        "ĠP",
        "ower"
      ],
      [
        "ĠT",
        "ik"
      ],
      [
        "ĠTh",
        "er"
      ],
      [
        "ĠTik",
        "i"
      ],
      [
        "P",
        "h"
      ],
      [
        "h",
        "an"
      ],
      [
        "ar",
        "k"
      ],
      [
        "ec",
        "han"
      ],
      [
        "ĠM",
        "echan"
      ],
      [
        "Ġ202",
        "0"
      ],
      [
        "ĠMechan",
        "ical"
      ],
      [
        "V",
        "olunteering"
      ],
      [
        "ĠF",
        "rontend"
      ],
      [
        "ĠF",
        "igma"
      ],
      [
        "ĠJ",
        "ava"
      ],
      [
        "ĠS",
        "hop"
      ],
      [
        "ĠM",
        "ob"
      ],
      [
        "is",
        "ion"
      ],
      [
        "ĠSu",
        "ccess"
      ],
      [
        "ĠShop",
        "ee"
      ],
      [
        "ĠMob",
        "ile"
      ],
      [
        "S",
        "ketching"
      ],
      [
        "W",
        "riting"
      ],
      [
        "ĠCertifi",
        "cation"
      ],
      [
        "icros",
        "oft"
      ],
      [
        "totyp",
        "ing"
      ],
      [
        "e",
        "ach"
      ],
      [
        "ĠT",
        "each"
      ],
      [
        "ĠB",
        "ran"
      ],
      [
        "r",
        "ical"
      ],
      [
        "ĠC",
        "l"
      ],
      [
        "ĠE",
        "lect"
      ],
      [
        "ĠVN",
        "G"
      ],
      [
        "ĠCorpor",
        "ation"
      ],
      [
        "ĠLead",
        "ership"
      ],
      [
        "ĠElect",
        "rical"
      ],
      [
        "R",
        "P"
      ],
      [
        "ĠA",
        "ust"
      ],
      [
        "ill",
        "ing"
      ],
      [
        "ĠT",
        "X"
      ],
      [
        "Ġm",
        "a"
      ],
      [
        "ĠB",
        "illing"
      ],
      [
        "ĠEn",
        "gine"
      ],
      [
        "ĠSt",
        "ruct"
      ],
      [
        "ĠAut",
        "omated"
      ],
      [
        "row",
        "n"
      ],
      [
        "Ph",
        "otography"
      ],
      [
        "ĠAust",
        "in"
      ],
      [
        "S",
        "t"
      ],
      [
        "al",
        "ifi"
      ],
      [
        "at",
        "es"
      ],
      [
        "Ġc",
        "lic"
      ],
      [
        "Ġr",
        "ates"
      ],
      [
        "Ġimpro",
        "ved"
      ],
      [
        "ĠEx",
        "ecuted"
      ],
      [
        "th",
        "rough"
      ],
      [
        "iz",
        "ation"
      ],
      [
        "Ġlead",
        "s"
      ],
      [
        "Ġgener",
        "ated"
      ],
      [
        "Ġqu",
        "alifi"
      ],
      [
        "Ġem",
        "ail"
      ],
      [
        "ĠSpecial",
        "ist"
      ],
      [
        "Ġclic",
        "k"
      ],
      [
        "Ġqualifi",
        "ed"
      ],
      [
        "5",
        "00"
      ],
      [
        "u",
        "an"
      ],
      [
        "y",
        "er"
      ],
      [
        "ĠLaw",
        "yer"
      ],
      [
        "ĠPharmac",
        "ist"
      ],
      [
        "ĠBudget",
        "ing"
      ],
      [
        "ĠC",
        "an"
      ],
      [
        "ĠPro",
        "totyping"
      ],
      [
        "ĠTh",
        "o"
      ],
      [
        "A",
        "R"
      ],
      [
        "k",
        "s"
      ],
      [
        "l",
        "atform"
      ],
      [
        "n",
        "ual"
      ],
      [
        "p",
        "ut"
      ],
      [
        "t",
        "ra"
      ],
      [
        "on",
        "ol"
      ],
      [
        "Ġa",
        "ut"
      ],
      [
        "ro",
        "m"
      ],
      [
        "st",
        "ing"
      ],
      [
        "Ġan",
        "nual"
      ],
      [
        "Ġp",
        "latform"
      ],
      [
        "Ġw",
        "ee"
      ],
      [
        "Ġm",
        "ig"
      ],
      [
        "Ġm",
        "icroservices"
      ],
      [
        "Ġm",
        "onol"
      ],
      [
        "Ġb",
        "oo"
      ],
      [
        "Ġr",
        "ecur"
      ],
      [
        "Ġr",
        "ele"
      ],
      [
        "Ġf",
        "rom"
      ],
      [
        "Ġh",
        "our"
      ],
      [
        "Ġth",
        "rough"
      ],
      [
        "Ġ201",
        "0"
      ],
      [
        "Ġre",
        "ven"
      ],
      [
        "Ġsp",
        "end"
      ],
      [
        "Ġimplement",
        "ation"
      ],
      [
        "ĠArchitect",
        "ed"
      ],
      [
        "Ġcyc",
        "le"
      ],
      [
        "Ġgener",
        "ating"
      ],
      [
        "Ġarchitect",
        "ure"
      ],
      [
        "AR",
        "R"
      ],
      [
        "tra",
        "ffic"
      ],
      [
        "Ġaut",
        "omated"
      ],
      [
        "Ġwee",
        "ks"
      ],
      [
        "Ġmig",
        "rated"
      ],
      [
        "Ġmonol",
        "ith"
      ],
      [
        "Ġboo",
        "sting"
      ],
      [
        "Ġrecur",
        "ring"
      ],
      [
        "Ġrele",
        "ase"
      ],
      [
        "Ġhour",
        "s"
      ],
      [
        "Ġthrough",
        "put"
      ],
      [
        "Ġreven",
        "ue"
      ],
      [
        "C",
        "P"
      ],
      [
        "c",
        "isc"
      ],
      [
        "ĠC",
        "A"
      ],
      [
        "ĠS",
        "an"
      ],
      [
        "ĠF",
        "ran"
      ],
      [
        "ĠCS",
        "S"
      ],
      [
        "cisc",
        "o"
      ],
      [
        "ĠFran",
        "cisco"
      ],
      [
        "F",
        "low"
      ],
      [
        "r",
        "ig"
      ],
      [
        "or",
        "Flow"
      ],
      [
        "et",
        "w"
      ],
      [
        "ĠT",
        "eam"
      ],
      [
        "ĠPro",
        "cess"
      ],
      [
        "Ġ201",
        "7"
      ],
      [
        "ue",
        "z"
      ],
      [
        "ens",
        "orFlow"
      ],
      [
        "rig",
        "uez"
      ],
      [
        "A",
        "s"
      ],
      [
        "Y",
        "ork"
      ],
      [
        "f",
        "y"
      ],
      [
        "g",
        "es"
      ],
      [
        "i",
        "ous"
      ],
      [
        "o",
        "CA"
      ],
      [
        "y",
        "zed"
      ],
      [
        "Ġ",
        "id"
      ],
      [
        "Ġ",
        "York"
      ],
      [
        "al",
        "yzed"
      ],
      [
        "ar",
        "ious"
      ],
      [
        "it",
        "ed"
      ],
      [
        "at",
        "ement"
      ],
      [
        "Ġan",
        "alyzed"
      ],
      [
        "ĠA",
        "cc"
      ],
      [
        "ent",
        "ure"
      ],
      [
        "ĠT",
        "yp"
      ],
      [
        "ĠG",
        "o"
      ],
      [
        "Ġpro",
        "ven"
      ],
      [
        "ĠGra",
        "b"
      ],
      [
        "Ġf",
        "unctional"
      ],
      [
        "ĠN",
        "Y"
      ],
      [
        "ĠN",
        "ew"
      ],
      [
        "Ġv",
        "arious"
      ],
      [
        "ac",
        "tive"
      ],
      [
        "Ġst",
        "atement"
      ],
      [
        "Ġac",
        "ross"
      ],
      [
        "Ġdevelop",
        "ing"
      ],
      [
        "Ġsaving",
        "s"
      ],
      [
        "ĠExc",
        "ited"
      ],
      [
        "Ġbudget",
        "s"
      ],
      [
        "Ġdepartment",
        "s"
      ],
      [
        "Pro",
        "active"
      ],
      [
        "Ġchallen",
        "ges"
      ],
      [
        "enti",
        "fy"
      ],
      [
        "inu",
        "x"
      ],
      [
        "ĠPrepar",
        "ed"
      ],
      [
        "Ġdu",
        "ring"
      ],
      [
        "oCA",
        "D"
      ],
      [
        "Ġid",
        "entify"
      ],
      [
        "ĠAcc",
        "enture"
      ],
      [
        "Ġstatement",
        "s"
      ],
      [
        "Ġidentify",
        "ing"
      ],
      [
        "C",
        "ooking"
      ],
      [
        "e",
        "at"
      ],
      [
        "n",
        "h"
      ],
      [
        "t",
        "le"
      ],
      [
        "on",
        "c"
      ],
      [
        "ĠS",
        "eat"
      ],
      [
        "ĠA",
        "l"
      ],
      [
        "ĠA",
        "pp"
      ],
      [
        "Ġ201",
        "9"
      ],
      [
        "ĠW",
        "A"
      ],
      [
        "uy",
        "nh"
      ],
      [
        "ĠSeat",
        "tle"
      ],
      [
        "G",
        "oogle"
      ],
      [
        "a",
        "u"
      ],
      [
        "ccoun",
        "ts"
      ],
      [
        "able",
        "au"
      ],
      [
        "ĠAss",
        "oci"
      ],
      [
        "c",
        "are"
      ],
      [
        "e",
        "al"
      ],
      [
        "i",
        "ation"
      ],
      [
        "r",
        "ies"
      ],
      [
        "il",
        "iation"
      ],
      [
        "ĠM",
        "icrosoft"
      ],
      [
        "ĠD",
        "ash"
      ],
      [
        "Ġd",
        "ail"
      ],
      [
        "Ġd",
        "isc"
      ],
      [
        "ĠEn",
        "ter"
      ],
      [
        "is",
        "e"
      ],
      [
        "ĠV",
        "olunteering"
      ],
      [
        "ĠH",
        "eal"
      ],
      [
        "ee",
        "p"
      ],
      [
        "Ġl",
        "edg"
      ],
      [
        "ĠAnaly",
        "zed"
      ],
      [
        "th",
        "care"
      ],
      [
        "ĠSu",
        "ite"
      ],
      [
        "Ġrec",
        "onc"
      ],
      [
        "Ġent",
        "ries"
      ],
      [
        "anc",
        "ies"
      ],
      [
        "bo",
        "ard"
      ],
      [
        "Ġtrans",
        "actions"
      ],
      [
        "rep",
        "ancies"
      ],
      [
        "Ġmanag",
        "ed"
      ],
      [
        "ĠDevelop",
        "ment"
      ],
      [
        "pr",
        "ise"
      ],
      [
        "ĠDash",
        "board"
      ],
      [
        "Ġdail",
        "y"
      ],
      [
        "Ġdisc",
        "repancies"
      ],
      [
        "ĠEnter",
        "prise"
      ],
      [
        "ĠHeal",
        "thcare"
      ],
      [
        "Ġledg",
        "er"
      ],
      [
        "Ġreconc",
        "iliation"
      ],
      [
        "R",
        "unning"
      ],
      [
        "b",
        "ute"
      ],
      [
        "i",
        "as"
      ],
      [
        "o",
        "s"
      ],
      [
        "et",
        "ail"
      ],
      [
        "Ġin",
        "novative"
      ],
      [
        "Ġp",
        "os"
      ],
      [
        "le",
        "vel"
      ],
      [
        "us",
        "ias"
      ],
      [
        "du",
        "ate"
      ],
      [
        "Ġd",
        "etail"
      ],
      [
        "Ġf",
        "oundation"
      ],
      [
        "ri",
        "bute"
      ],
      [
        "Ġcont",
        "ribute"
      ],
      [
        "th",
        "usias"
      ],
      [
        "Ġgra",
        "duate"
      ],
      [
        "En",
        "thusias"
      ],
      [
        "Ġpos",
        "ition"
      ],
      [
        "Enthusias",
        "tic"
      ],
      [
        "d",
        "iv"
      ],
      [
        "i",
        "du"
      ],
      [
        "ine",
        "z"
      ],
      [
        "Ġ201",
        "8"
      ],
      [
        "Sc",
        "rip"
      ],
      [
        "div",
        "idu"
      ],
      [
        "Scrip",
        "t"
      ],
      [
        "dividu",
        "al"
      ],
      [
        "2",
        "50"
      ],
      [
        "m",
        "arket"
      ],
      [
        "er",
        "ating"
      ],
      [
        "Ġa",
        "cc"
      ],
      [
        "Ġa",
        "ccounts"
      ],
      [
        "el",
        "erating"
      ],
      [
        "et",
        "ention"
      ],
      [
        "ĠB",
        "ackend"
      ],
      [
        "Ġr",
        "ate"
      ],
      [
        "Ġr",
        "etention"
      ],
      [
        "ĠN",
        "etw"
      ],
      [
        "ĠL",
        "inux"
      ],
      [
        "ĠManag",
        "ed"
      ],
      [
        "reas",
        "e"
      ],
      [
        "Ġres",
        "olving"
      ],
      [
        "Ġsp",
        "earhead"
      ],
      [
        "Ġsu",
        "pport"
      ],
      [
        "Ġinc",
        "rease"
      ],
      [
        "Ġoper",
        "ating"
      ],
      [
        "ĠAut",
        "oCAD"
      ],
      [
        "perform",
        "ing"
      ],
      [
        "Ġacc",
        "elerating"
      ],
      [
        "Ġspearhead",
        "ing"
      ],
      [
        "T",
        "raveling"
      ],
      [
        "U",
        "X"
      ],
      [
        "m",
        "ith"
      ],
      [
        "z",
        "on"
      ],
      [
        "ĠS",
        "mart"
      ],
      [
        "ĠA",
        "ma"
      ],
      [
        "ĠGra",
        "ph"
      ],
      [
        "ĠTrac",
        "ker"
      ],
      [
        "ĠAma",
        "zon"
      ],
      [
        "ĠGraph",
        "ic"
      ],
      [
        "m",
        "n"
      ],
      [
        "n",
        "el"
      ],
      [
        "o",
        "st"
      ],
      [
        "an",
        "nel"
      ],
      [
        "ĠS",
        "ketching"
      ],
      [
        "ĠE",
        "m"
      ],
      [
        "ac",
        "t"
      ],
      [
        "ĠRet",
        "ail"
      ],
      [
        "ĠO",
        "mn"
      ],
      [
        "ĠPl",
        "atform"
      ],
      [
        "ich",
        "annel"
      ],
      [
        "ĠOmn",
        "ichannel"
      ],
      [
        "i",
        "f"
      ],
      [
        "ĠT",
        "ableau"
      ],
      [
        "T",
        "ML"
      ],
      [
        "d",
        "on"
      ],
      [
        "o",
        "it"
      ],
      [
        "y",
        "bers"
      ],
      [
        "ti",
        "st"
      ],
      [
        "on",
        "don"
      ],
      [
        "el",
        "oit"
      ],
      [
        "ĠC",
        "ybers"
      ],
      [
        "ien",
        "tist"
      ],
      [
        "ĠD",
        "eloit"
      ],
      [
        "ĠU",
        "K"
      ],
      [
        "ĠSc",
        "ientist"
      ],
      [
        "ĠL",
        "ondon"
      ],
      [
        "ĠCybers",
        "ecurity"
      ],
      [
        "ĠDeloit",
        "te"
      ],
      [
        "s",
        "hop"
      ],
      [
        "w",
        "ay"
      ],
      [
        "ĠG",
        "ate"
      ],
      [
        "ĠW",
        "orks"
      ],
      [
        "ĠPh",
        "oto"
      ],
      [
        "pa",
        "ce"
      ],
      [
        "ĠAut",
        "h"
      ],
      [
        "ĠCollabor",
        "ative"
      ],
      [
        "ĠGate",
        "way"
      ],
      [
        "ĠWorks",
        "pace"
      ],
      [
        "ĠPhoto",
        "shop"
      ],
      [
        "r",
        "edic"
      ],
      [
        "en",
        "ance"
      ],
      [
        "ĠP",
        "redic"
      ],
      [
        "ĠPh",
        "otography"
      ],
      [
        "ĠMaint",
        "enance"
      ],
      [
        "ĠTeach",
        "er"
      ],
      [
        "ĠPredic",
        "tive"
      ],
      [
        "1",
        "00"
      ],
      [
        "i",
        "el"
      ],
      [
        "ar",
        "ci"
      ],
      [
        "an",
        "iel"
      ],
      [
        "arci",
        "a"
      ],
      [
        "D",
        "ynamic"
      ],
      [
        "a",
        "ce"
      ],
      [
        "b",
        "ook"
      ],
      [
        "st",
        "ruct"
      ],
      [
        "ĠS",
        "eeking"
      ],
      [
        "Ġc",
        "ut"
      ],
      [
        "ĠM",
        "a"
      ],
      [
        "ĠT",
        "ensorFlow"
      ],
      [
        "ĠH",
        "TML"
      ],
      [
        "ĠRe",
        "act"
      ],
      [
        "ĠIllust",
        "rator"
      ],
      [
        "Ġinfra",
        "struct"
      ],
      [
        "Ġchallen",
        "ging"
      ],
      [
        "Ġmanag",
        "ing"
      ],
      [
        "ace",
        "book"
      ],
      [
        "Ġcut",
        "ting"
      ],
      [
        "Ġinfrastruct",
        "ure"
      ],
      [
        "A",
        "c"
      ],
      [
        "T",
        "or"
      ],
      [
        "p",
        "lish"
      ],
      [
        "Ġ",
        "perform"
      ],
      [
        "Ġm",
        "entor"
      ],
      [
        "com",
        "plish"
      ],
      [
        "Ġsp",
        "ecial"
      ],
      [
        "Ġeffic",
        "ient"
      ],
      [
        "Ac",
        "complish"
      ],
      [
        "Tor",
        "ch"
      ],
      [
        "Ġperform",
        "ance"
      ],
      [
        "Ġmentor",
        "ing"
      ],
      [
        "Ġspecial",
        "izing"
      ],
      [
        "Accomplish",
        "ed"
      ],
      [
        "L",
        "ear"
      ],
      [
        "e",
        "es"
      ],
      [
        "g",
        "ag"
      ],
      [
        "n",
        "et"
      ],
      [
        "o",
        "cial"
      ],
      [
        "p",
        "on"
      ],
      [
        "r",
        "un"
      ],
      [
        "s",
        "ource"
      ],
      [
        "er",
        "net"
      ],
      [
        "Ġs",
        "ocial"
      ],
      [
        "ĠC",
        "ooking"
      ],
      [
        "lo",
        "ad"
      ],
      [
        "Ġm",
        "edi"
      ],
      [
        "Ġd",
        "own"
      ],
      [
        "Ġf",
        "aster"
      ],
      [
        "rac",
        "ting"
      ],
      [
        "Ġen",
        "gag"
      ],
      [
        "Ġst",
        "udent"
      ],
      [
        "Ġres",
        "pon"
      ],
      [
        "ub",
        "ernet"
      ],
      [
        "Ġop",
        "en"
      ],
      [
        "Ġatt",
        "racting"
      ],
      [
        "Ġattend",
        "ees"
      ],
      [
        "ĠDevelop",
        "ed"
      ],
      [
        "Lear",
        "n"
      ],
      [
        "load",
        "s"
      ],
      [
        "Ġmedi",
        "a"
      ],
      [
        "Ġdown",
        "loads"
      ],
      [
        "Ġengag",
        "ement"
      ],
      [
        "Ġrespon",
        "se"
      ],
      [
        "ubernet",
        "es"
      ],
      [
        "d",
        "d"
      ],
      [
        "g",
        "e"
      ],
      [
        "h",
        "ile"
      ],
      [
        "i",
        "ability"
      ],
      [
        "l",
        "edge"
      ],
      [
        "n",
        "ership"
      ],
      [
        "n",
        "ow"
      ],
      [
        "o",
        "king"
      ],
      [
        "o",
        "ord"
      ],
      [
        "p",
        "ir"
      ],
      [
        "s",
        "cal"
      ],
      [
        "v",
        "ent"
      ],
      [
        "v",
        "ir"
      ],
      [
        "v",
        "olving"
      ],
      [
        "Ġ",
        "ra"
      ],
      [
        "Ġ",
        "est"
      ],
      [
        "in",
        "ated"
      ],
      [
        "on",
        "ment"
      ],
      [
        "Ġa",
        "dd"
      ],
      [
        "ar",
        "ity"
      ],
      [
        "ar",
        "ge"
      ],
      [
        "el",
        "iability"
      ],
      [
        "Ġs",
        "olid"
      ],
      [
        "ĠC",
        "oord"
      ],
      [
        "Ġin",
        "volving"
      ],
      [
        "Ġp",
        "rac"
      ],
      [
        "Ġp",
        "art"
      ],
      [
        "Ġw",
        "hile"
      ],
      [
        "Ġd",
        "ynamic"
      ],
      [
        "un",
        "ding"
      ],
      [
        "Ġr",
        "eliability"
      ],
      [
        "ion",
        "ary"
      ],
      [
        "Ġf",
        "oc"
      ],
      [
        "Ġf",
        "unding"
      ],
      [
        "Ġv",
        "olunte"
      ],
      [
        "is",
        "ing"
      ],
      [
        "Ġval",
        "ue"
      ],
      [
        "ab",
        "lish"
      ],
      [
        "Ġen",
        "vir"
      ],
      [
        "Ġl",
        "arge"
      ],
      [
        "Ġch",
        "arity"
      ],
      [
        "ĠEx",
        "pert"
      ],
      [
        "Ġlo",
        "oking"
      ],
      [
        "rateg",
        "ic"
      ],
      [
        "Ġe",
        "vent"
      ],
      [
        "ĠPy",
        "Torch"
      ],
      [
        "Ġvis",
        "ionary"
      ],
      [
        "Ġscal",
        "ing"
      ],
      [
        "Ġbuil",
        "ding"
      ],
      [
        "Ġdri",
        "ving"
      ],
      [
        "Ġarchitect",
        "ural"
      ],
      [
        "Ġk",
        "now"
      ],
      [
        "Ġbusiness",
        "es"
      ],
      [
        "Ġdesign",
        "s"
      ],
      [
        "St",
        "rategic"
      ],
      [
        "As",
        "pir"
      ],
      [
        "nership",
        "s"
      ],
      [
        "scal",
        "e"
      ],
      [
        "Ġra",
        "ising"
      ],
      [
        "Ġest",
        "ablish"
      ],
      [
        "ĠCoord",
        "inated"
      ],
      [
        "Ġprac",
        "tical"
      ],
      [
        "Ġpart",
        "nerships"
      ],
      [
        "Ġfoc",
        "us"
      ],
      [
        "Ġvolunte",
        "ers"
      ],
      [
        "Ġenvir",
        "onment"
      ],
      [
        "Ġknow",
        "ledge"
      ],
      [
        "Aspir",
        "ing"
      ],
      [
        "Ġestablish",
        "ing"
      ],
      [
        "b",
        "ust"
      ],
      [
        "e",
        "y"
      ],
      [
        "l",
        "ate"
      ],
      [
        "o",
        "al"
      ],
      [
        "Ġin",
        "to"
      ],
      [
        "ĠP",
        "ost"
      ],
      [
        "ĠR",
        "unning"
      ],
      [
        "Ġg",
        "oal"
      ],
      [
        "Ġro",
        "bust"
      ],
      [
        "Ġtrans",
        "late"
      ],
      [
        "Ġab",
        "ility"
      ],
      [
        "Ġrequ",
        "irements"
      ],
      [
        "Ġk",
        "ey"
      ],
      [
        "In",
        "novative"
      ],
      [
        "Ġgoal",
        "s"
      ],
      [
        "e",
        "av"
      ],
      [
        "g",
        "uy"
      ],
      [
        "u",
        "tion"
      ],
      [
        "er",
        "y"
      ],
      [
        "ed",
        "s"
      ],
      [
        "ec",
        "ution"
      ],
      [
        "at",
        "ab"
      ],
      [
        "Ġs",
        "im"
      ],
      [
        "em",
        "as"
      ],
      [
        "Ġd",
        "atab"
      ],
      [
        "ul",
        "ation"
      ],
      [
        "Ġh",
        "eav"
      ],
      [
        "Ġex",
        "ecution"
      ],
      [
        "Ġlo",
        "ad"
      ],
      [
        "Ġspe",
        "eds"
      ],
      [
        "Ġsch",
        "emas"
      ],
      [
        "Ġqu",
        "ery"
      ],
      [
        "guy",
        "en"
      ],
      [
        "Ġsim",
        "ulation"
      ],
      [
        "Ġdatab",
        "ase"
      ],
      [
        "Ġheav",
        "y"
      ],
      [
        "R",
        "M"
      ],
      [
        "i",
        "x"
      ],
      [
        "ĠS",
        "igma"
      ],
      [
        "ĠS",
        "ix"
      ],
      [
        "6",
        "0"
      ],
      [
        "ĠP",
        "ort"
      ],
      [
        "ĠSc",
        "ik"
      ],
      [
        "ĠK",
        "ubernetes"
      ],
      [
        "ĠPort",
        "al"
      ],
      [
        "ĠScik",
        "it"
      ],
      [
        "B",
        "A"
      ],
      [
        "D",
        "edic"
      ],
      [
        "st",
        "ry"
      ],
      [
        "el",
        "ine"
      ],
      [
        "Ġs",
        "kill"
      ],
      [
        "ĠS",
        "enti"
      ],
      [
        "Ġin",
        "du"
      ],
      [
        "ĠP",
        "ip"
      ],
      [
        "Ġpro",
        "duct"
      ],
      [
        "Ġimpro",
        "ve"
      ],
      [
        "Dedic",
        "ated"
      ],
      [
        "Ġskill",
        "ed"
      ],
      [
        "ĠSenti",
        "ment"
      ],
      [
        "Ġindu",
        "stry"
      ],
      [
        "ĠPip",
        "eline"
      ],
      [
        "L",
        "S"
      ],
      [
        "R",
        "es"
      ],
      [
        "S",
        "QL"
      ],
      [
        "u",
        "ation"
      ],
      [
        "al",
        "uation"
      ],
      [
        "ĠAssoci",
        "ate"
      ],
      [
        ")",
        ".\\"
      ],
      [
        "S",
        "e"
      ],
      [
        "on",
        "ed"
      ],
      [
        "ĠM",
        "od"
      ],
      [
        "as",
        "oned"
      ],
      [
        "Ġd",
        "igital"
      ],
      [
        "Ġle",
        "ading"
      ],
      [
        "Ġle",
        "verag"
      ],
      [
        "Ġtrans",
        "formation"
      ],
      [
        "Sc",
        "rum"
      ],
      [
        "Se",
        "asoned"
      ],
      [
        "ĠMod",
        "eling"
      ],
      [
        "Ġleverag",
        "ing"
      ],
      [
        "d",
        "ri"
      ],
      [
        "f",
        "ine"
      ],
      [
        "m",
        "uni"
      ],
      [
        "o",
        "in"
      ],
      [
        "an",
        "y"
      ],
      [
        "an",
        "ds"
      ],
      [
        "ĠC",
        "om"
      ],
      [
        "ess",
        "ic"
      ],
      [
        "ĠT",
        "raveling"
      ],
      [
        "am",
        "es"
      ],
      [
        "ĠE",
        "ag"
      ],
      [
        "ur",
        "th"
      ],
      [
        "Ġf",
        "urth"
      ],
      [
        "ul",
        "ts"
      ],
      [
        "Ġh",
        "ands"
      ],
      [
        "ĠV",
        "aluation"
      ],
      [
        "Ġg",
        "row"
      ],
      [
        "Ġre",
        "fine"
      ],
      [
        "Ġcomp",
        "any"
      ],
      [
        "Ġj",
        "oin"
      ],
      [
        "Ġfe",
        "ature"
      ],
      [
        "Res",
        "ults"
      ],
      [
        "dri",
        "ven"
      ],
      [
        "muni",
        "cation"
      ],
      [
        "ĠCom",
        "munication"
      ],
      [
        "essic",
        "a"
      ],
      [
        "ĠEag",
        "er"
      ],
      [
        "Ġfurth",
        "er"
      ],
      [
        "Ġgrow",
        "th"
      ],
      [
        "R",
        "ec"
      ],
      [
        "d",
        "es"
      ],
      [
        "e",
        "iv"
      ],
      [
        "r",
        "ong"
      ],
      [
        "r",
        "ating"
      ],
      [
        "v",
        "ated"
      ],
      [
        "Ġ",
        "it"
      ],
      [
        "Ġ",
        "earning"
      ],
      [
        "Ġa",
        "s"
      ],
      [
        "st",
        "rating"
      ],
      [
        "Ġc",
        "are"
      ],
      [
        "Ġin",
        "dividual"
      ],
      [
        "ĠP",
        "ay"
      ],
      [
        "Ġp",
        "assion"
      ],
      [
        "Ġm",
        "oti"
      ],
      [
        "Ġb",
        "ring"
      ],
      [
        "Ġd",
        "emon"
      ],
      [
        "Ġpro",
        "fic"
      ],
      [
        "Ġpro",
        "totyp"
      ],
      [
        "Ġf",
        "ac"
      ],
      [
        "Ġto",
        "p"
      ],
      [
        "Ġst",
        "art"
      ],
      [
        "Ġst",
        "rong"
      ],
      [
        "Ġcont",
        "inu"
      ],
      [
        "ult",
        "y"
      ],
      [
        "Ġgra",
        "des"
      ],
      [
        "High",
        "ly"
      ],
      [
        "ĠCollabor",
        "ated"
      ],
      [
        "Rec",
        "eiv"
      ],
      [
        "Ġcare",
        "er"
      ],
      [
        "ĠPay",
        "able"
      ],
      [
        "Ġmoti",
        "vated"
      ],
      [
        "Ġbring",
        "ing"
      ],
      [
        "Ġdemon",
        "strating"
      ],
      [
        "Ġprofic",
        "iency"
      ],
      [
        "Ġprototyp",
        "e"
      ],
      [
        "Ġfac",
        "ulty"
      ],
      [
        "Ġcontinu",
        "ous"
      ],
      [
        "Receiv",
        "able"
      ],
      [
        "I",
        "S"
      ],
      [
        "P",
        "M"
      ],
      [
        "S",
        "P"
      ],
      [
        "re",
        "ading"
      ],
      [
        "of",
        "reading"
      ],
      [
        "W",
        "orks"
      ],
      [
        "h",
        "ol"
      ],
      [
        "j",
        "or"
      ],
      [
        "p",
        "ated"
      ],
      [
        "r",
        "ic"
      ],
      [
        "in",
        "or"
      ],
      [
        "er",
        "emon"
      ],
      [
        "ti",
        "ci"
      ],
      [
        "Ġa",
        "gile"
      ],
      [
        "ar",
        "tici"
      ],
      [
        "at",
        "ures"
      ],
      [
        "Ġc",
        "eremon"
      ],
      [
        "ĠM",
        "arket"
      ],
      [
        "ĠP",
        "artici"
      ],
      [
        "Ġp",
        "h"
      ],
      [
        "Ġm",
        "inor"
      ],
      [
        "Ġfe",
        "atures"
      ],
      [
        "Ġdeploy",
        "ed"
      ],
      [
        "Ġdeploy",
        "ment"
      ],
      [
        "olid",
        "Works"
      ],
      [
        "Ġma",
        "jor"
      ],
      [
        "hol",
        "der"
      ],
      [
        "Ġceremon",
        "ies"
      ],
      [
        "ĠPartici",
        "pated"
      ],
      [
        "S",
        "ales"
      ],
      [
        "g",
        "oc"
      ],
      [
        "h",
        "es"
      ],
      [
        "i",
        "ang"
      ],
      [
        "l",
        "es"
      ],
      [
        "o",
        "du"
      ],
      [
        "s",
        "hes"
      ],
      [
        "v",
        "ision"
      ],
      [
        "ti",
        "um"
      ],
      [
        "per",
        "vision"
      ],
      [
        "Ġw",
        "hi"
      ],
      [
        "Ġm",
        "odu"
      ],
      [
        "Ġb",
        "ug"
      ],
      [
        "ol",
        "ved"
      ],
      [
        "Ġreduc",
        "ed"
      ],
      [
        "ain",
        "ed"
      ],
      [
        "Ġres",
        "olved"
      ],
      [
        "ĠSu",
        "pervision"
      ],
      [
        "av",
        "id"
      ],
      [
        "Ġappli",
        "cation"
      ],
      [
        "Ġcra",
        "shes"
      ],
      [
        "Ġenhanc",
        "ed"
      ],
      [
        "ĠMaint",
        "ained"
      ],
      [
        "Ġwhi",
        "ch"
      ],
      [
        "Ġmodu",
        "les"
      ],
      [
        "8",
        "2"
      ],
      [
        "S",
        "L"
      ],
      [
        "c",
        "ure"
      ],
      [
        "p",
        "loy"
      ],
      [
        "er",
        "form"
      ],
      [
        "st",
        "ru"
      ],
      [
        "el",
        "ations"
      ],
      [
        "ĠP",
        "ol"
      ],
      [
        "ic",
        "ies"
      ],
      [
        "ĠR",
        "elations"
      ],
      [
        "ĠIn",
        "stru"
      ],
      [
        "ĠAccoun",
        "ts"
      ],
      [
        "ĠLaw",
        "s"
      ],
      [
        "cure",
        "ment"
      ],
      [
        "ploy",
        "ee"
      ],
      [
        "erform",
        "ance"
      ],
      [
        "ĠPol",
        "icies"
      ],
      [
        "ĠInstru",
        "ction"
      ],
      [
        "O",
        "S"
      ],
      [
        "i",
        "OS"
      ],
      [
        "ec",
        "ast"
      ],
      [
        "ĠE",
        "ducation"
      ],
      [
        "ĠF",
        "acebook"
      ],
      [
        "ĠRet",
        "ention"
      ],
      [
        "ĠCh",
        "ange"
      ],
      [
        "ĠFor",
        "ecast"
      ],
      [
        "ĠEducation",
        "al"
      ],
      [
        "ĠForecast",
        "ing"
      ],
      [
        "r",
        "et"
      ],
      [
        "ĠA",
        "ud"
      ],
      [
        "ret",
        "e"
      ],
      [
        "ĠAud",
        "iting"
      ],
      [
        "6",
        "4"
      ],
      [
        "a",
        "el"
      ],
      [
        "g",
        "ation"
      ],
      [
        "i",
        "ti"
      ],
      [
        "o",
        "T"
      ],
      [
        "r",
        "ang"
      ],
      [
        "s",
        "ing"
      ],
      [
        "w",
        "if"
      ],
      [
        "al",
        "ent"
      ],
      [
        "ĠS",
        "ite"
      ],
      [
        "ĠG",
        "ener"
      ],
      [
        "om",
        "as"
      ],
      [
        "ag",
        "e"
      ],
      [
        "is",
        "ition"
      ],
      [
        "ĠPro",
        "curement"
      ],
      [
        "por",
        "ting"
      ],
      [
        "ri",
        "age"
      ],
      [
        "qu",
        "isition"
      ],
      [
        "ĠRe",
        "porting"
      ],
      [
        "ĠNur",
        "sing"
      ],
      [
        "ich",
        "ael"
      ],
      [
        "ĠAc",
        "quisition"
      ],
      [
        "ĠLe",
        "an"
      ],
      [
        "ĠEm",
        "ployee"
      ],
      [
        "iti",
        "gation"
      ],
      [
        "wif",
        "t"
      ],
      [
        "ĠGener",
        "ation"
      ],
      [
        "L",
        "C"
      ],
      [
        "P",
        "E"
      ],
      [
        "b",
        "t"
      ],
      [
        "c",
        "rete"
      ],
      [
        "g",
        "ra"
      ],
      [
        "k",
        "Book"
      ],
      [
        "k",
        "eep"
      ],
      [
        "m",
        "ming"
      ],
      [
        "u",
        "ic"
      ],
      [
        "or",
        "ed"
      ],
      [
        "ĠS",
        "olidWorks"
      ],
      [
        "ĠM",
        "anual"
      ],
      [
        "Ġm",
        "aint"
      ],
      [
        "ĠPro",
        "ofreading"
      ],
      [
        "ĠPro",
        "gra"
      ],
      [
        "ain",
        "ability"
      ],
      [
        "Ġde",
        "bt"
      ],
      [
        "ĠSales",
        "force"
      ],
      [
        "Ġmonth",
        "s"
      ],
      [
        "Ġgener",
        "al"
      ],
      [
        "ĠRe",
        "fact"
      ],
      [
        "ĠCon",
        "crete"
      ],
      [
        "kBook",
        "s"
      ],
      [
        "keep",
        "ing"
      ],
      [
        "uic",
        "kBooks"
      ],
      [
        "Ġmaint",
        "ainability"
      ],
      [
        "ĠProgra",
        "mming"
      ],
      [
        "ĠRefact",
        "ored"
      ],
      [
        "a",
        "o"
      ],
      [
        "m",
        "od"
      ],
      [
        "w",
        "illiams"
      ],
      [
        "Ġ",
        "iOS"
      ],
      [
        "ĠS",
        "wift"
      ],
      [
        "ĠW",
        "illiams"
      ],
      [
        "ay",
        "out"
      ],
      [
        "ynamic",
        "s"
      ],
      [
        "ĠAl",
        "tium"
      ],
      [
        "Sales",
        "force"
      ],
      [
        "mod",
        "ynamics"
      ],
      [
        "8",
        "7"
      ],
      [
        "J",
        "en"
      ],
      [
        "d",
        "ro"
      ],
      [
        "k",
        "in"
      ],
      [
        "ro",
        "l"
      ],
      [
        "ĠCont",
        "rol"
      ],
      [
        "ĠRes",
        "ource"
      ],
      [
        "ĠTher",
        "modynamics"
      ],
      [
        "Jen",
        "kin"
      ],
      [
        "dro",
        "id"
      ],
      [
        "Jenkin",
        "s"
      ],
      [
        "8",
        "9"
      ],
      [
        "L",
        "L"
      ],
      [
        "L",
        "P"
      ],
      [
        "M",
        "R"
      ],
      [
        "S",
        "AP"
      ],
      [
        "a",
        "p"
      ],
      [
        "c",
        "u"
      ],
      [
        "d",
        "own"
      ],
      [
        "u",
        "c"
      ],
      [
        "u",
        "fact"
      ],
      [
        "an",
        "ufact"
      ],
      [
        "ĠP",
        "LC"
      ],
      [
        "ĠT",
        "riage"
      ],
      [
        "ĠE",
        "SL"
      ],
      [
        "ĠB",
        "ook"
      ],
      [
        "ur",
        "ing"
      ],
      [
        "ĠPro",
        "cesses"
      ],
      [
        "ir",
        "cu"
      ],
      [
        "ĠPharmac",
        "ology"
      ],
      [
        "ark",
        "down"
      ],
      [
        "ap",
        "y"
      ],
      [
        "anufact",
        "uring"
      ],
      [
        "ĠBook",
        "keeping"
      ],
      [
        "ircu",
        "it"
      ],
      [
        "D",
        "esign"
      ],
      [
        "re",
        "ative"
      ],
      [
        "ĠP",
        "erformance"
      ],
      [
        "ĠE",
        "MR"
      ],
      [
        "ĠL",
        "itigation"
      ],
      [
        "ĠL",
        "ayout"
      ],
      [
        "ĠPro",
        "pert"
      ],
      [
        "tel",
        "lect"
      ],
      [
        "edi",
        "cation"
      ],
      [
        "ĠPropert",
        "y"
      ],
      [
        "tellect",
        "ual"
      ],
      [
        "1",
        "3"
      ],
      [
        "d",
        "avis"
      ],
      [
        "g",
        "lish"
      ],
      [
        "l",
        "u"
      ],
      [
        "p",
        "tim"
      ],
      [
        "r",
        "ts"
      ],
      [
        "er",
        "ature"
      ],
      [
        "en",
        "ce"
      ],
      [
        "it",
        "erature"
      ],
      [
        "ĠA",
        "rts"
      ],
      [
        "ĠD",
        "avis"
      ],
      [
        "ĠT",
        "alent"
      ],
      [
        "ĠEn",
        "glish"
      ],
      [
        "ĠL",
        "iterature"
      ],
      [
        "ĠO",
        "ptim"
      ],
      [
        "ĠSt",
        "udent"
      ],
      [
        "ĠK",
        "PI"
      ],
      [
        "lu",
        "ence"
      ],
      [
        "ĠOptim",
        "ization"
      ],
      [
        "2",
        "4"
      ],
      [
        "A",
        "SP"
      ],
      [
        "W",
        "ASP"
      ],
      [
        "p",
        "ens"
      ],
      [
        "ĠB",
        "I"
      ],
      [
        "ur",
        "ric"
      ],
      [
        "ul",
        "um"
      ],
      [
        "is",
        "pens"
      ],
      [
        "ĠV",
        "BA"
      ],
      [
        "ĠI",
        "oT"
      ],
      [
        "ĠAn",
        "droid"
      ],
      [
        "ect",
        "or"
      ],
      [
        "ĠQ",
        "uickBooks"
      ],
      [
        "urric",
        "ulum"
      ],
      [
        "ispens",
        "ing"
      ],
      [
        "2",
        "9"
      ],
      [
        "P",
        "R"
      ],
      [
        "b",
        "ui"
      ],
      [
        "e",
        "us"
      ],
      [
        "e",
        "Script"
      ],
      [
        "h",
        "eus"
      ],
      [
        "m",
        "et"
      ],
      [
        "ĠC",
        "are"
      ],
      [
        "ĠC",
        "reative"
      ],
      [
        "ĠM",
        "anufacturing"
      ],
      [
        "ĠB",
        "ui"
      ],
      [
        "ĠN",
        "LP"
      ],
      [
        "ĠV",
        "endor"
      ],
      [
        "ĠInter",
        "com"
      ],
      [
        "met",
        "heus"
      ],
      [
        "7",
        "8"
      ],
      [
        "I",
        "E"
      ],
      [
        "c",
        "ont"
      ],
      [
        "j",
        "ohnson"
      ],
      [
        "m",
        "iller"
      ],
      [
        "en",
        "et"
      ],
      [
        "ro",
        "om"
      ],
      [
        "ro",
        "ll"
      ],
      [
        "ro",
        "cont"
      ],
      [
        "ĠC",
        "ircuit"
      ],
      [
        "ĠM",
        "iller"
      ],
      [
        "ch",
        "imp"
      ],
      [
        "ĠG",
        "IS"
      ],
      [
        "ic",
        "rocont"
      ],
      [
        "ĠE",
        "RP"
      ],
      [
        "ĠB",
        "logging"
      ],
      [
        "ail",
        "chimp"
      ],
      [
        "ass",
        "room"
      ],
      [
        "ĠJ",
        "ohnson"
      ],
      [
        "ĠIn",
        "Design"
      ],
      [
        "ru",
        "g"
      ],
      [
        "IT",
        "A"
      ],
      [
        "ĠAc",
        "tions"
      ],
      [
        "ĠInter",
        "actions"
      ],
      [
        "enet",
        "ration"
      ],
      [
        "roll",
        "ers"
      ],
      [
        "icrocont",
        "rollers"
      ],
      [
        "1",
        "6"
      ],
      [
        "2",
        "0"
      ],
      [
        "A",
        "AP"
      ],
      [
        "S",
        "p"
      ],
      [
        "b",
        "p"
      ],
      [
        "e",
        "bp"
      ],
      [
        "s",
        "tical"
      ],
      [
        "ĠC",
        "urriculum"
      ],
      [
        "ĠM",
        "icrocontrollers"
      ],
      [
        "ĠV",
        "ector"
      ],
      [
        "ĠIn",
        "tellectual"
      ],
      [
        "ĠO",
        "WASP"
      ],
      [
        "ati",
        "stical"
      ],
      [
        "ĠConf",
        "luence"
      ],
      [
        "ĠNetw",
        "ork"
      ],
      [
        "Sp",
        "ot"
      ],
      [
        "ebp",
        "ack"
      ],
      [
        "P",
        "r"
      ],
      [
        "an",
        "a"
      ],
      [
        "ĠM",
        "arkdown"
      ],
      [
        "ĠM",
        "ailchimp"
      ],
      [
        "ess",
        "on"
      ],
      [
        "ĠD",
        "ITA"
      ],
      [
        "ĠN",
        "ative"
      ],
      [
        "is",
        "k"
      ],
      [
        "ĠSc",
        "rip"
      ],
      [
        "ĠSt",
        "atistical"
      ],
      [
        "ord",
        "Pr"
      ],
      [
        "ĠBran",
        "d"
      ],
      [
        "ĠCl",
        "ient"
      ],
      [
        "ĠTyp",
        "eScript"
      ],
      [
        "ĠScrip",
        "ting"
      ],
      [
        "ordPr",
        "ess"
      ],
      [
        ".",
        ")"
      ],
      [
        "t",
        "ran"
      ],
      [
        "ar",
        "ah"
      ],
      [
        "ĠM",
        "edication"
      ],
      [
        "lo",
        "om"
      ],
      [
        "ĠD",
        "ocument"
      ],
      [
        "ĠT",
        "ran"
      ],
      [
        "ĠR",
        "isk"
      ],
      [
        "ket",
        "ch"
      ],
      [
        "ĠW",
        "ound"
      ],
      [
        "fra",
        "ming"
      ],
      [
        "ĠPharmac",
        "y"
      ],
      [
        "ire",
        "framing"
      ],
      [
        "ber",
        "g"
      ],
      [
        "ĠStruct",
        "ures"
      ],
      [
        "loom",
        "berg"
      ],
      [
        "ĠDocument",
        "ation"
      ],
      [
        "M",
        "M"
      ],
      [
        "a",
        "x"
      ],
      [
        "b",
        "rown"
      ],
      [
        "d",
        "iting"
      ],
      [
        "ĠP",
        "enetration"
      ],
      [
        "ĠD",
        "ispensing"
      ],
      [
        "ĠB",
        "rown"
      ],
      [
        "ĠPro",
        "metheus"
      ],
      [
        "ĠW",
        "ebpack"
      ],
      [
        "ĠPrepar",
        "ation"
      ],
      [
        "ĠBran",
        "ding"
      ],
      [
        "2",
        "6"
      ],
      [
        "B",
        "LS"
      ],
      [
        "D",
        "A"
      ],
      [
        "E",
        "A"
      ],
      [
        "U",
        "DA"
      ],
      [
        "g",
        "is"
      ],
      [
        "h",
        "ering"
      ],
      [
        "i",
        "ology"
      ],
      [
        "i",
        "rew"
      ],
      [
        "o",
        "ad"
      ],
      [
        "at",
        "hering"
      ],
      [
        "ĠD",
        "rug"
      ],
      [
        "ĠG",
        "athering"
      ],
      [
        "edu",
        "x"
      ],
      [
        "ĠB",
        "iology"
      ],
      [
        "ĠR",
        "oad"
      ],
      [
        "ĠL",
        "esson"
      ],
      [
        "all",
        "s"
      ],
      [
        "qu",
        "irements"
      ],
      [
        "eg",
        "al"
      ],
      [
        "ma",
        "p"
      ],
      [
        "ĠAs",
        "ana"
      ],
      [
        "ĠCl",
        "assroom"
      ],
      [
        "ĠStruct",
        "ural"
      ],
      [
        "gis",
        "tics"
      ],
      [
        "irew",
        "alls"
      ],
      [
        "ĠRoad",
        "map"
      ],
      [
        "3",
        "0"
      ],
      [
        "3",
        "5"
      ],
      [
        "ĠC",
        "RM"
      ],
      [
        "ĠS",
        "ketch"
      ],
      [
        "ra",
        "fting"
      ],
      [
        "ĠD",
        "rafting"
      ],
      [
        "ĠT",
        "ax"
      ],
      [
        "ĠG",
        "AAP"
      ],
      [
        "ĠB",
        "loomberg"
      ],
      [
        "ĠL",
        "egal"
      ],
      [
        "ĠW",
        "ordPress"
      ],
      [
        "rac",
        "t"
      ],
      [
        "1",
        "7"
      ],
      [
        "D",
        "B"
      ],
      [
        "d",
        "ang"
      ],
      [
        "d",
        "riguez"
      ],
      [
        "h",
        "ark"
      ],
      [
        "o",
        "DB"
      ],
      [
        "p",
        "to"
      ],
      [
        "s",
        "tim"
      ],
      [
        "es",
        "hark"
      ],
      [
        "ro",
        "driguez"
      ],
      [
        "il",
        "y"
      ],
      [
        "ĠD",
        "ang"
      ],
      [
        "ĠE",
        "stim"
      ],
      [
        "ĠB",
        "ash"
      ],
      [
        "ĠR",
        "od"
      ],
      [
        "ĠR",
        "edux"
      ],
      [
        "ĠU",
        "ML"
      ],
      [
        "ĠF",
        "irewalls"
      ],
      [
        "pp",
        "ing"
      ],
      [
        "ĠW",
        "ireframing"
      ],
      [
        "ir",
        "eshark"
      ],
      [
        "ong",
        "oDB"
      ],
      [
        "ry",
        "pto"
      ],
      [
        "ĠTher",
        "apy"
      ],
      [
        "ĠMa",
        "pping"
      ],
      [
        "IE",
        "M"
      ],
      [
        "ĠEstim",
        "ation"
      ],
      [
        "ĠRod",
        "riguez"
      ],
      [
        "rypto",
        "graphy"
      ],
      [
        "4",
        "3"
      ],
      [
        "7",
        "6"
      ],
      [
        "h",
        "uynh"
      ],
      [
        "j",
        "ang"
      ],
      [
        "ĠH",
        "uynh"
      ],
      [
        "ĠRe",
        "quirements"
      ],
      [
        "Pro",
        "fessional"
      ],
      [
        "jang",
        "o"
      ],
      [
        "8",
        "6"
      ],
      [
        "a",
        "k"
      ],
      [
        "e",
        "holder"
      ],
      [
        "o",
        "graphy"
      ],
      [
        "ĠC",
        "PR"
      ],
      [
        "ĠS",
        "MM"
      ],
      [
        "ĠD",
        "jango"
      ],
      [
        "ĠE",
        "diting"
      ],
      [
        "ĠB",
        "ug"
      ],
      [
        "ĠF",
        "EA"
      ],
      [
        "ĠW",
        "ireshark"
      ],
      [
        "ph",
        "an"
      ],
      [
        "ĠPh",
        "an"
      ],
      [
        "ĠCont",
        "ract"
      ],
      [
        "ak",
        "eholder"
      ],
      [
        "8",
        "5"
      ],
      [
        "A",
        "d"
      ],
      [
        "L",
        "Ops"
      ],
      [
        "g",
        "re"
      ],
      [
        "o",
        "gistics"
      ],
      [
        "w",
        "in"
      ],
      [
        "z",
        "ure"
      ],
      [
        "ĠC",
        "UDA"
      ],
      [
        "ĠS",
        "ystem"
      ],
      [
        "et",
        "y"
      ],
      [
        "ĠM",
        "art"
      ],
      [
        "ĠM",
        "LOps"
      ],
      [
        "ĠG",
        "CP"
      ],
      [
        "ail",
        "win"
      ],
      [
        "ĠL",
        "ogistics"
      ],
      [
        "ph",
        "am"
      ],
      [
        "ĠPh",
        "am"
      ],
      [
        "oci",
        "ety"
      ],
      [
        "mart",
        "inez"
      ],
      [
        "gre",
        "SQL"
      ],
      [
        "ĠMart",
        "inez"
      ],
      [
        "ailwin",
        "d"
      ],
      [
        "2",
        "1"
      ],
      [
        "4",
        "5"
      ],
      [
        "4",
        "6"
      ],
      [
        "7",
        "2"
      ],
      [
        "A",
        "M"
      ],
      [
        "s",
        "mith"
      ],
      [
        "ĠS",
        "mith"
      ],
      [
        "ĠS",
        "IEM"
      ],
      [
        "ĠM",
        "ongoDB"
      ],
      [
        "ĠV",
        "ue"
      ],
      [
        "ĠSt",
        "akeholder"
      ],
      [
        "ĠArchitect",
        "ure"
      ],
      [
        "3",
        "1"
      ],
      [
        "3",
        "6"
      ],
      [
        "4",
        "0"
      ],
      [
        "7",
        "0"
      ],
      [
        "7",
        "9"
      ],
      [
        "9",
        "6"
      ],
      [
        "i",
        "um"
      ],
      [
        "l",
        "in"
      ],
      [
        "en",
        "ium"
      ],
      [
        "el",
        "enium"
      ],
      [
        "ĠA",
        "zure"
      ],
      [
        "ĠG",
        "D"
      ],
      [
        "is",
        "ual"
      ],
      [
        "ĠV",
        "isual"
      ],
      [
        "ot",
        "lin"
      ],
      [
        "ĠVisual",
        "ization"
      ],
      [
        "4",
        "1"
      ],
      [
        "7",
        "5"
      ],
      [
        "8",
        "3"
      ],
      [
        "m",
        "an"
      ],
      [
        "v",
        "u"
      ],
      [
        "ĠC",
        "ryptography"
      ],
      [
        "ĠS",
        "elenium"
      ],
      [
        "ĠA",
        "llocation"
      ],
      [
        "ĠV",
        "u"
      ],
      [
        "ĠI",
        "V"
      ],
      [
        "ĠI",
        "AM"
      ],
      [
        "ĠGit",
        "Book"
      ],
      [
        "RP",
        "C"
      ],
      [
        "ĠTyp",
        "ography"
      ],
      [
        "PM",
        "P"
      ],
      [
        "1",
        "2"
      ],
      [
        "9",
        "2"
      ],
      [
        "9",
        "9"
      ],
      [
        "g",
        "arcia"
      ],
      [
        "ĠD",
        "aniel"
      ],
      [
        "ĠT",
        "ailwind"
      ],
      [
        "ĠG",
        "arcia"
      ],
      [
        "Ġd",
        "aniel"
      ],
      [
        "ĠE",
        "mail"
      ],
      [
        "Pro",
        "ject"
      ],
      [
        "+",
        "+"
      ],
      [
        "om",
        "ation"
      ],
      [
        "2",
        "8"
      ],
      [
        "7",
        "3"
      ],
      [
        "9",
        "1"
      ],
      [
        "ĠSc",
        "rum"
      ],
      [
        "ĠAut",
        "omation"
      ],
      [
        "ĠPost",
        "greSQL"
      ],
      [
        "5",
        "6"
      ],
      [
        "9",
        "0"
      ],
      [
        "A",
        "WS"
      ],
      [
        "j",
        "ones"
      ],
      [
        "n",
        "guyen"
      ],
      [
        "v",
        "o"
      ],
      [
        "er",
        "t"
      ],
      [
        "or",
        "king"
      ],
      [
        "ob",
        "ert"
      ],
      [
        "ĠR",
        "obert"
      ],
      [
        "ĠN",
        "guyen"
      ],
      [
        "ĠV",
        "o"
      ],
      [
        "ĠV",
        "ision"
      ],
      [
        "ĠL",
        "evel"
      ],
      [
        "Ġg",
        "RPC"
      ],
      [
        "ĠJ",
        "ones"
      ],
      [
        "Ġro",
        "ber"
      ],
      [
        "ĠPh",
        "uong"
      ],
      [
        "ĠNo",
        "de"
      ],
      [
        "ĠSE",
        "M"
      ],
      [
        "ĠK",
        "otlin"
      ],
      [
        "ĠPost",
        "man"
      ],
      [
        "Ġph",
        "uong"
      ],
      [
        "Ġrober",
        "t"
      ],
      [
        "1",
        "1"
      ],
      [
        "ĠP",
        "M"
      ],
      [
        "ĠF",
        "oundation"
      ],
      [
        "6",
        "5"
      ],
      [
        "8",
        "8"
      ],
      [
        "l",
        "ut"
      ],
      [
        "pr",
        "ess"
      ],
      [
        "lut",
        "ter"
      ],
      [
        "0",
        "2"
      ],
      [
        "X",
        "D"
      ],
      [
        "Ġ",
        "XD"
      ],
      [
        "Ġh",
        "uong"
      ],
      [
        "ĠJ",
        "ames"
      ],
      [
        "ĠJ",
        "essica"
      ],
      [
        "ĠH",
        "uong"
      ],
      [
        "art",
        "er"
      ],
      [
        "Ġj",
        "ames"
      ],
      [
        "Ġj",
        "essica"
      ],
      [
        "ĠCh",
        "arter"
      ],
      [
        "ĠNetw",
        "orking"
      ],
      [
        "1",
        "9"
      ],
      [
        "4",
        "9"
      ],
      [
        "6",
        "6"
      ],
      [
        "g",
        "or"
      ],
      [
        "m",
        "s"
      ],
      [
        "ed",
        "is"
      ],
      [
        "Ġan",
        "h"
      ],
      [
        "ith",
        "ms"
      ],
      [
        "ĠF",
        "lutter"
      ],
      [
        "ĠAn",
        "h"
      ],
      [
        "ĠQ",
        "uan"
      ],
      [
        "ĠTes",
        "ter"
      ],
      [
        "Ġqu",
        "an"
      ],
      [
        "++",
        ","
      ],
      [
        "gor",
        "ithms"
      ],
      [
        "0",
        "8"
      ],
      [
        "o",
        "ol"
      ],
      [
        "ch",
        "ool"
      ],
      [
        "ĠD",
        "avid"
      ],
      [
        "ĠG",
        "iang"
      ],
      [
        "Ġd",
        "avid"
      ],
      [
        "ĠN",
        "goc"
      ],
      [
        "Ġg",
        "iang"
      ],
      [
        "ĠH",
        "um"
      ],
      [
        "Ġn",
        "goc"
      ],
      [
        "ĠEx",
        "press"
      ],
      [
        "Ġma",
        "i"
      ],
      [
        "ĠMa",
        "i"
      ],
      [
        "Ad",
        "obe"
      ],
      [
        "ĠHum",
        "an"
      ],
      [
        "3",
        "9"
      ],
      [
        "4",
        "8"
      ],
      [
        "5",
        "5"
      ],
      [
        "7",
        "7"
      ],
      [
        "9",
        "4"
      ],
      [
        "S",
        "ociety"
      ],
      [
        "Ġt",
        "uan"
      ],
      [
        "ĠT",
        "uan"
      ],
      [
        "Ġm",
        "inh"
      ],
      [
        "ĠL",
        "an"
      ],
      [
        "Ġl",
        "an"
      ],
      [
        "ĠAl",
        "gorithms"
      ],
      [
        "2",
        "5"
      ],
      [
        "Ġt",
        "rang"
      ],
      [
        "ĠM",
        "em"
      ],
      [
        "ĠM",
        "ichael"
      ],
      [
        "ĠT",
        "rang"
      ],
      [
        "Ġm",
        "ichael"
      ],
      [
        "ĠR",
        "edis"
      ],
      [
        "Ġh",
        "uy"
      ],
      [
        "Ġth",
        "omas"
      ],
      [
        "ĠN",
        "am"
      ],
      [
        "Ġv",
        "y"
      ],
      [
        "ĠV",
        "y"
      ],
      [
        "ĠH",
        "uy"
      ],
      [
        "ĠTh",
        "omas"
      ],
      [
        "ĠMem",
        "ber"
      ],
      [
        "1",
        "8"
      ],
      [
        "4",
        "7"
      ],
      [
        "9",
        "3"
      ],
      [
        "F",
        "inancial"
      ],
      [
        "Ġth",
        "ao"
      ],
      [
        "ac",
        "ker"
      ],
      [
        "ĠTh",
        "ao"
      ],
      [
        "CS",
        "M"
      ],
      [
        "ĠCS",
        "M"
      ],
      [
        "ĠJava",
        "Script"
      ],
      [
        "3",
        "3"
      ],
      [
        "4",
        "4"
      ],
      [
        "5",
        "2"
      ],
      [
        "A",
        "C"
      ],
      [
        "r",
        "igh"
      ],
      [
        "w",
        "righ"
      ],
      [
        "ĠPh",
        "uc"
      ],
      [
        "lay",
        "wrigh"
      ],
      [
        "Ġph",
        "uc"
      ],
      [
        "laywrigh",
        "t"
      ],
      [
        ")",
        ".\","
      ],
      [
        "0",
        "1"
      ],
      [
        "3",
        "8"
      ],
      [
        "6",
        "8"
      ],
      [
        "T",
        "E"
      ],
      [
        "ĠJ",
        "ohn"
      ],
      [
        "Ġ1",
        "1"
      ],
      [
        "Ġj",
        "ohn"
      ],
      [
        "Hub",
        "Spot"
      ],
      [
        "8",
        "1"
      ],
      [
        "K",
        "A"
      ],
      [
        "ĠD",
        "uy"
      ],
      [
        "ĠL",
        "inh"
      ],
      [
        "ĠAdminist",
        "rator"
      ],
      [
        "Ġl",
        "inh"
      ],
      [
        "CS",
        "P"
      ],
      [
        "Ġdu",
        "y"
      ],
      [
        "2",
        "2"
      ],
      [
        "6",
        "1"
      ],
      [
        "PM",
        "I"
      ],
      [
        "0",
        "5"
      ],
      [
        "2",
        "7"
      ],
      [
        "6",
        "9"
[...]
